06
2C
11
2B
3B
3D
37
2B
02
01
14
2E
2B
2D
2F
16
31
16
33
31
05
05
36
29
06
04
06
03
08
0E
0C
3C
13
3E
3F
15
36
29
06
09
2D
08
30
31
13
3B
39
38
3E
36
0E
11
2E
02
39
34
2E
2B
3B
10
3B
29
29
2E
3E
2D
08
2D
0E
0C
0C
2F
3D
36
39
2C
35
3B
0F
08
2B
15
38
02
2F
0D
38
36
00
3D
04
2D
0C
3C
00
39
33
10
3E
27
06
31
14
3A
33
28
38
30
03
0C
0F
0C
3E
2D
3D
30
0B
2E
2F
2F
15
3F
2E
00
17
29
15
12
0F
0C
2D
02
33
09
00
35
3A
30
13
05
3F
16
2E
3E
32
0C
32
2F
0F
14
0A
3C
2D
12
34
2B
32
14
2E
28
3A
15
03
28
0B
31
13
11
26
01
2F
0C
2F
28
2B
05
31
2F
0C
10
38
35
04
04
3B
2E
13
28
01
0C
07
3B
3F
38
2B
09
16
2F
36
26
34
11
3B
37
2C
2F
3B
29
11
0D
08
00
08
16
08
3A
03
2F
02
12
30
3C
2D
00
39
2A
3A
0D
05
09
38
0F
32
10
06
31
04
01
2E
04
33
09
3B
17
0B
08
02
07
0C
2F
0D
08
30
2D
0B
15
10
0F
0B
15
33
33
03
00
0B
10
33
08
31
38
2E
2F
0A
16
0F
15
32
16
38
36
34
2F
35
01
11
36
3F
01
10
13
30
11
36
2C
28
13
07
35
39
0E
04
0E
29
11
3E
35
2E
10
09
3D
2C
34
0A
15
03
10
11
30
37
0E
3D
2E
3D
03
33
36
12
31
2E
2B
0E
39
3F
2C
2F
2F
15
3B
36
34
27
2D
04
32
02
38
13
28
06
36
17
3E
12
04
3F
0A
35
38
0C
2B
13
15
34
33
2D
39
38
37
03
39
35
3E
0A
3D
0C
2A
14
2B
29
12
0B
09
0F
30
3B
00
07
04
2C
16
33
07
0E
0D
15
0A
13
2C
0B
16
14
01
3B
3B
09
02
12
2D
0F
3B
0D
14
04
02
37
00
2D
3A
27
3A
0F
28
3D
10
09
12
37
11
0F
31
0A
03
28
02
35
3D
2A
35
2D
2E
04
3E
05
2E
0E
07
38
33
01
0A
34
08
31
08
3D
0B
0C
35
28
33
03
0B
17
05
29
2C
3D
0D
27
38
08
2E
35
14
3C
08
07
0C
11
07
3D
14
38
05
3C
3C
2D
0F
38
04
2E
17
3F
11
0D
05
3D
16
0C
32
2A
3F
02
33
16
11
3C
13
3D
31
08
05
0D
09
27
35
00
38
09
0C
11
01
09
33
3F
14
11
3C
0F
3E
2C
0D
2D
14
3E
0D
0F
38
04
03
15
0C
0B
15
2F
09
0E
35
2A
33
09
3D
3C
0E
00
04
05
29
30
14
03
3D
10
2D
12
12
30
37
39
3E
2B
37
3E
3B
02
35
2C
32
04
3E
15
04
18
32
2B
2C
2B
33
32
11
2F
0F
32
3C
39
3C
37
0B
06
38
39
29
34
3E
3A
07
0A
2C
2A
0C
02
34
2E
36
27
0F
09
3F
09
29
09
28
28
07
10
15
37
10
0C
07
31
0E
36
0D
0F
02
3A
35
2A
2C
2A
3D
02
0B
32
37
04
0D
13
0C
2D
11
08
14
29
11
12
37
31
0E
06
2D
09
3D
0E
31
2D
30
09
07
39
30
08
15
16
0A
0C
2C
09
14
2C
10
2D
02
0C
08
33
00
16
38
13
17
31
0D
02
3C
32
2E
2F
0B
38
13
3B
08
0C
2D
3C
36
12
3E
3B
30
00
0E
02
08
15
03
2B
34
33
37
0A
0F
09
2F
05
17
31
09
2B
37
12
3C
16
11
29
3E
07
09
0F
16
2E
3E
0C
09
0D
10
3F
04
0F
27
3B
3C
0B
0F
07
35
2C
0B
0A
01
3A
07
2B
3B
2C
12
35
2C
31
13
15
35
0C
03
2B
0F
29
0D
17
2E
3F
00
0A
30
12
2C
0B
05
02
33
30
15
0A
09
32
16
09
2F
3A
0B
16
0D
33
02
3E
38
0C
3D
29
31
35
13
3A
3B
10
2E
2B
2F
2B
0F
37
0B
10
3E
02
14
30
3A
37
05
02
05
39
01
14
2D
0C
38
05
39
29
2B
07
01
28
09
0F
36
01
3D
0D
33
12
03
0A
12
33
30
06
16
15
2B
2C
08
37
11
37
10
2A
08
38
2F
07
2E
10
0E
2F
2E
14
0F
04
06
0E
0C
0A
17
0E
33
3F
08
12
2B
0E
3B
38
03
30
0B
2C
0E
3A
2E
3E
06
0C
07
13
3B
12
16
3A
33
12
08
0E
2D
02
10
02
14
17
34
2F
3B
28
39
12
30
38
31
06
30
01
14
05
11
2B
02
09
0B
00
27
04
35
30
33
08
2D
11
30
3A
31
29
00
0E
2B
14
26
2A
18
2D
26
04
11
17
14
09
06
10
2D
05
2F
38
03
36
02
31
02
3B
3A
34
2D
15
0E
04
09
3F
37
2E
30
35
0C
3F
14
2B
3A
0A
14
29
32
04
00
08
36
01
3E
2C
2A
0A
0A
12
3E
10
11
31
14
2D
16
15
28
3B
07
2D
30
34
03
31
12
0A
0F
3F
2B
0A
15
29
3C
3F
28
36
3E
2B
03
35
3A
0A
0F
10
16
06
15
10
0A
10
3C
16
13
34
14
07
17
07
0F
33
35
0D
38
09
2A
31
28
08
00
36
2B
36
3E
0B
3A
04
30
06
01
0B
3C
3E
05
3B
0D
30
3B
34
35
07
34
3D
11
35
3E
3A
2F
0D
0F
3D
0E
11
0A
08
2F
05
0A
28
0A
0E
3E
34
15
0E
15
39
36
04
00
2A
06
2B
33
27
09
05
37
13
15
2F
2E
09
0F
36
0B
06
3F
38
0B
15
12
2D
2E
08
16
2E
39
04
0E
01
0C
28
07
01
37
09
3B
03
0F
33
38
38
03
2E
12
2C
30
15
16
2F
11
0F
32
17
0C
0E
37
2C
03
17
13
00
0C
0F
30
15
2F
2C
3E
2E
2A
0E
28
02
32
2A
35
3B
30
3C
3C
28
29
3F
2B
08
14
06
33
08
0C
03
04
30
36
06
01
0D
13
11
39
36
12
0E
0B
39
07
31
3C
39
2E
04
35
31
0D
00
2E
09
38
01
31
38
3A
15
3C
00
33
16
2E
09
3B
3E
2F
05
35
03
0E
34
11
0C
0C
2D
35
27
08
2E
17
07
17
2F
04
3C
13
0B
2D
01
12
2F
28
32
08
01
3E
3E
0A
0E
03
09
06
02
0E
34
2E
2E
11
0E
05
27
32
2F
3E
0C
08
00
3B
33
0A
3A
3F
31
32
30
3F
02
06
0D
06
03
29
17
15
36
08
39
3A
0D
07
08
00
3D
39
32
07
11
2A
33
29
04
04
08
3F
33
08
03
0B
13
04
3A
35
37
0A
0C
37
29
31
05
35
0F
2A
2F
33
2F
3C
00
2A
0D
29
17
36
0D
2F
01
12
29
3C
03
0B
37
02
07
08
05
0B
2B
03
3F
01
0D
3E
3A
13
3A
0D
0B
0D
11
10
2E
32
11
2A
08
3D
08
03
2F
2D
12
10
2B
06
11
0E
06
39
16
13
3D
36
11
36
39
3B
0A
35
27
0C
08
0A
30
35
39
01
0E
12
06
3E
2E
00
30
01
15
3E
38
39
2D
0B
07
07
12
01
00
16
15
11
2D
29
0D
3A
31
37
04
27
01
03
36
37
0C
19
32
0D
06
12
11
38
11
16
00
2E
00
17
02
16
0A
12
10
3E
2F
13
32
28
06
36
01
2F
3A
10
2D
37
13
02
3C
37
3A
13
33
08
2B
0A
3C
34
0D
34
35
32
14
3A
3D
2D
02
3D
09
2D
0B
3E
3F
28
12
00
2A
31
2E
2D
07
35
31
13
10
08
32
04
0A
11
08
3F
0D
0A
27
2D
35
29
35
33
3A
37
2E
2F
32
17
2C
15
04
2C
2F
00
34
30
3F
0D
3B
36
3F
14
08
3F
30
3F
0F
0C
38
11
0A
14
31
12
00
17
2C
29
15
38
2B
2A
06
2E
0B
36
27
04
39
16
28
10
06
3E
34
31
0A
2D
06
31
27
3A
03
32
36
2E
0F
08
35
07
37
3B
2F
0F
0D
0F
06
12
39
30
06
0A
00
32
27
32
33
29
13
29
00
3F
33
0B
3A
34
3F
0E
2E
37
17
3F
14
3D
3D
04
0E
3E
36
3D
08
09
2B
29
10
12
01
10
3E
15
05
0D
09
2C
27
07
04
29
38
31
29
3E
2F
30
04
09
10
2D
32
30
2D
2A
06
3A
0E
02
2D
00
30
12
34
07
32
3D
16
02
03
35
30
31
38
0D
3C
2D
2B
01
13
3D
30
00
37
0E
3C
35
29
0B
36
3F
07
30
2A
06
37
03
30
3E
28
12
37
12
2E
0F
0A
33
3E
2E
37
3F
2D
3C
0A
11
15
30
3B
17
0E
14
0A
38
37
29
30
13
11
31
07
15
0E
14
2D
03
33
2D
0D
12
10
0E
11
2C
3F
38
2F
0E
0A
0E
29
30
3D
31
3E
3D
0E
28
37
06
02
3D
04
0D
2D
38
35
31
13
3D
2C
16
0E
14
10
39
3F
15
2D
30
0F
31
14
0B
0C
31
01
31
29
03
36
0C
39
2B
39
35
14
2F
04
12
2E
32
0B
39
33
17
2E
2F
34
38
02
11
09
2F
0C
33
2B
10
04
31
2F
37
16
36
31
14
2E
11
31
10
01
13
3C
0B
0E
17
3A
09
35
07
2F
32
04
09
0F
10
2B
04
02
06
34
39
00
14
37
06
2D
0A
0E
31
01
01
15
3D
2A
32
2F
2E
2F
0A
38
2A
2A
0C
30
32
3F
3D
09
36
10
3B
29
3E
0C
36
38
3D
0B
06
03
17
3A
29
31
2B
39
16
27
38
05
2B
3F
08
13
34
10
0C
32
36
35
03
31
3B
13
11
03
05
01
28
14
3F
3C
35
2E
01
02
3D
34
0B
2A
00
31
0B
01
17
03
00
13
02
37
0C
2F
04
0B
32
31
12
0C
30
0A
2A
09
16
09
10
38
2F
33
07
17
0D
03
3C
27
37
38
03
0F
39
3A
3C
12
34
3B
04
3B
15
12
34
2C
33
00
08
2B
2D
39
12
30
0D
15
11
0F
30
2C
32
14
3F
29
0A
04
02
2A
2B
05
15
09
3B
06
3F
2B
15
3B
33
12
0E
2F
01
03
11
02
37
14
39
17
02
35
2D
2C
3F
00
2C
0F
37
2E
3B
39
05
0B
06
2F
0A
27
0C
00
2D
3B
3E
07
3C
2A
32
29
36
03
08
0E
11
32
30
0C
18
3D
09
01
0D
3C
2F
3D
2E
2F
09
0A
2C
09
11
2D
04
11
10
08
3A
3B
0C
2F
3E
31
02
12
14
3A
39
0B
04
0D
07
36
3E
37
17
0F
14
28
32
0C
2B
16
31
0F
0A
2D
3A
3C
06
0E
07
37
30
0A
3E
3C
2C
12
0A
32
02
03
39
0C
2D
3C
07
11
37
38
39
3B
2D
00
32
12
34
07
36
3B
07
2B
0F
2D
04
12
06
10
03
2D
0E
36
12
0A
3C
2B
3F
0F
2C
17
37
3B
3A
15
27
3A
05
33
34
2D
11
2A
03
0F
14
2B
0E
0A
2D
0B
2C
36
11
10
15
2E
39
17
32
2A
12
11
3E
3E
09
30
09
30
07
2B
0C
3E
34
08
01
3E
11
3A
09
31
2D
2A
0D
0C
05
09
3A
08
14
31
03
32
0E
2A
08
17
0D
05
03
08
0D
2A
3F
3C
09
10
04
06
3A
28
29
2F
14
2F
07
39
02
3A
30
38
0D
2F
35
01
2C
12
3D
36
19
30
05
11
2C
16
00
36
37
01
15
02
2B
3A
16
3F
34
10
2C
09
16
09
15
14
0A
09
12
06
0D
02
36
39
0B
32
0E
37
03
2E
07
0F
33
01
3D
2D
2C
15
2F
07
12
0E
37
3D
03
2B
08
07
2B
2D
00
37
2F
3A
06
0C
04
3F
14
00
3E
30
2F
06
12
3E
03
01
33
2B
06
08
08
05
2A
3B
2E
09
10
2D
3B
34
10
12
0A
10
00
08
0C
14
0C
11
0F
27
05
11
32
2F
31
3C
2B
2F
03
34
37
10
39
13
01
04
0A
3F
31
13
16
30
04
05
2D
13
2F
2C
29
09
2D
3F
15
33
2D
0B
3E
01
0E
05
3B
3B
02
3B
2E
0C
07
11
00
34
11
29
28
11
3A
35
04
28
2B
04
30
10
0D
11
2A
00
39
32
06
31
15
35
28
36
05
36
3D
15
0B
01
00
15
3D
14
12
17
04
16
34
2C
06
06
00
00
07
17
13
38
35
01
2D
02
2D
3F
0A
35
04
10
2E
0C
39
3B
02
0C
16
16
35
01
3E
0C
06
30
0A
2B
16
2A
03
27
28
09
3E
3E
13
2B
38
10
12
15
35
14
16
14
3C
32
09
16
2A
39
38
35
06
08
31
06
02
2C
30
15
2E
15
05
00
0F
2A
29
0C
32
2B
0B
3E
33
05
38
0B
15
08
2F
00
0C
08
01
36
3A
01
14
3E
0F
00
03
2D
31
28
05
2A
39
14
10
2F
3E
27
04
3C
3B
0A
39
04
0F
3C
3D
07
3C
05
33
33
3F
2C
07
39
02
27
3A
34
00
11
2E
03
2C
3A
33
02
15
34
05
01
07
0C
0C
29
3B
38
0F
38
08
0C
0C
32
02
0D
2D
2E
14
3C
16
32
33
31
2B
08
14
2D
0C
15
36
3D
02
00
38
14
35
36
06
34
3F
18
3C
3F
0E
10
2E
13
04
30
36
06
0F
39
06
17
09
3B
14
00
06
13
11
0F
31
3C
15
38
14
0E
2C
13
29
2A
3C
0F
04
37
05
30
2F
15
34
0D
2F
0B
3A
2E
17
02
3B
3A
3B
0D
0B
3D
2C
0F
11
08
14
3D
38
34
34
02
38
08
3E
14
29
0E
06
0F
02
2B
13
03
2D
0E
07
3A
04
28
37
32
29
16
32
3F
32
13
2C
34
11
01
00
14
04
31
34
34
16
3F
28
00
12
35
2A
3C
16
08
3B
36
11
32
38
2E
13
03
2A
2E
10
16
30
13
31
16
0A
32
00
36
2E
14
30
2D
2A
31
0C
39
0B
2C
30
03
12
09
0C
2F
0C
05
2D
3B
0C
0D
3C
03
14
12
0D
0B
30
12
0A
2C
28
05
06
15
0F
2E
12
15
30
14
00
39
02
0F
2C
3F
06
0F
0D
07
3F
3E
11
05
37
3F
00
2C
3F
11
37
3B
27
35
2B
09
01
28
3C
09
14
06
06
32
00
16
34
11
12
32
02
10
05
39
2D
2D
0A
03
07
02
32
33
38
31
12
37
12
0F
36
0A
36
15
3D
38
09
3E
30
3E
2D
07
3D
2A
0E
06
03
02
10
2E
34
05
3D
31
0A
2A
0A
11
2B
39
12
31
37
0B
05
2B
32
17
0E
35
3D
3C
35
35
3D
09
30
07
15
39
30
38
2E
3A
0A
09
3F
0A
00
13
3C
38
13
30
07
2E
02
30
36
10
3C
36
00
12
07
3C
03
2A
28
0C
3C
3A
2E
07
0D
39
29
3B
31
2D
3C
12
29
3C
36
0D
0B
29
16
01
28
09
3A
2D
0A
3A
3B
0A
0F
10
39
2D
29
2B
31
06
2B
2E
2B
10
01
0C
3F
08
07
00
2E
34
05
3B
16
2C
30
06
35
33
08
15
32
3D
32
2E
34
0F
05
10
36
09
35
27
2E
03
31
2E
38
09
0D
06
34
39
2E
12
37
00
38
11
35
06
11
0B
37
02
04
0E
3A
2B
2D
2E
2D
10
39
0C
06
3D
37
07
04
11
3A
32
3E
0E
33
3F
36
38
01
2F
3B
37
2D
0A
31
0D
0C
37
2E
12
2B
16
30
3F
15
05
0F
0E
09
29
3F
0B
2F
2C
04
00
08
2E
3A
33
3D
3F
31
35
27
30
34
0A
0E
2C
37
01
0B
2E
3C
02
28
11
06
05
02
35
3C
0F
3B
13
16
0A
3A
29
01
0C
0D
13
04
06
2C
01
2B
3D
0E
15
3C
3F
09
34
38
0D
3D
08
03
36
0C
0F
2F
3D
3B
35
0F
32
3B
08
00
0E
02
2F
35
17
11
08
01
34
07
0B
04
3E
3B
05
0D
08
38
27
2F
2E
2B
3E
0E
2B
03
01
0A
0D
11
35
0F
37
0F
29
0C
02
36
29
10
0A
08
3E
3F
05
02
33
16
10
11
2B
34
17
16
29
3F
02
33
17
02
3F
30
11
15
29
11
07
2D
34
3B
0C
31
28
35
14
06
13
02
06
2D
2A
31
38
3C
2D
02
2B
08
38
04
3C
28
04
2D
04
12
06
01
02
35
04
08
34
01
14
10
05
37
34
30
05
01
34
03
12
3F
0D
38
39
31
39
39
3D
0A
13
11
30
30
01
0D
3A
00
11
27
33
0D
2D
3C
2B
2D
3D
15
14
34
05
09
3A
0E
06
2A
33
09
0B
00
17
0C
37
0E
38
2E
2D
3D
36
0B
08
37
31
29
2A
06
32
3D
31
35
2E
2F
3C
02
09
0E
03
30
0D
16
10
0F
13
29
0B
3C
38
19
33
01
0E
30
3D
27
2F
2E
30
2F
10
01
3E
34
2B
2E
3C
2F
3E
06
37
14
02
34
3E
2E
37
0B
03
02
35
02
28
29
36
2B
14
2D
3F
39
3F
01
2D
0F
0C
14
2C
11
34
16
13
3A
3D
05
13
04
2C
03
38
3A
2F
01
16
01
07
06
06
3A
11
07
0E
2A
2C
3F
2C
07
12
35
32
13
3C
14
2D
02
3F
05
07
32
10
05
2A
02
38
35
3D
09
32
09
28
0C
12
12
3F
30
3D
2B
08
12
10
36
12
35
02
3A
34
00
14
11
33
17
0B
3A
06
2C
0C
3B
0F
13
13
31
0F
0F
0D
2C
3F
29
3C
2A
12
3C
39
16
30
17
01
11
10
30
2A
15
35
2E
37
0C
38
16
03
0F
0B
37
00
12
27
3B
2A
29
0A
3E
0D
0A
0F
00
0B
38
09
15
34
34
00
01
29
30
37
30
2B
05
0E
01
33
13
07
3F
2E
3C
13
10
36
32
0A
11
3B
36
00
13
00
17
31
37
00
33
39
38
0D
12
2B
04
38
2F
08
10
3A
14
2C
3D
2E
02
2C
37
04
0B
37
03
33
01
3F
11
08
3C
01
2F
01
0A
2B
06
17
13
36
09
03
3C
10
09
38
3A
39
19
2A
3B
3E
36
13
29
34
35
00
3E
0F
30
34
2A
15
38
01
10
33
12
11
34
28
18
2F
02
2E
32
0D
30
2C
34
38
32
3C
31
3C
07
2D
00
06
2B
37
30
13
3D
3A
03
2A
2B
07
06
04
06
01
12
2D
33
29
12
3B
30
14
0B
11
03
27
2A
2B
3C
34
12
17
2F
32
15
36
3C
30
37
2D
11
01
12
0A
11
16
02
36
2B
0A
2F
36
06
35
15
2F
2D
07
35
31
2B
3E
3A
10
36
15
3E
3B
0E
39
05
12
2E
30
38
2C
30
01
32
02
00
2C
03
0D
11
0D
16
3D
0B
0A
08
31
36
03
15
10
03
2A
01
3B
32
3A
08
37
16
3A
2E
0F
3E
2F
2B
12
11
15
0A
3E
3B
3E
3D
0A
38
2B
2A
10
32
0B
29
00
0C
3D
3F
37
3C
05
35
11
08
10
16
37
30
01
2E
06
3A
36
28
3F
36
07
17
08
2C
06
3E
07
30
34
16
39
01
03
2D
10
31
0C
00
29
07
36
07
14
35
38
33
3C
10
2B
15
10
0E
0C
13
37
3A
08
37
3A
3B
3A
2F
2B
10
2A
30
3A
3B
05
05
35
14
2B
06
2B
3A
17
2C
05
29
3C
03
3B
0D
29
14
38
16
29
00
17
3C
3D
3A
0E
14
10
3D
06
2A
2E
06
08
15
06
0A
3F
15
0A
3F
35
2A
00
3A
39
13
17
2D
37
01
2D
35
0D
2A
31
2E
39
15
2A
2A
04
00
38
34
05
2E
0C
11
04
2F
3B
3C
0E
38
12
13
05
2D
0E
37
13
2F
3D
35
0E
3D
31
32
2E
3D
06
2D
3D
11
3E
0D
39
10
00
05
08
31
33
11
08
2B
13
33
34
30
14
10
33
14
3A
3F
10
08
29
11
18
3A
2B
0E
14
0C
38
2E
06
38
09
31
2E
2B
13
2F
3D
34
0C
0D
0F
3D
2F
2A
2F
3B
15
00
0D
10
11
0A
03
37
16
2E
3A
17
14
06
09
2C
2B
3E
11
2B
3E
0C
3A
2E
03
02
0B
2D
3C
3F
13
05
15
2A
34
0F
04
0C
08
28
01
3C
37
0D
3A
3B
3F
3C
37
0B
2F
33
3B
2E
15
2C
2B
32
2F
15
35
34
06
0B
00
2D
31
33
29
0E
2B
00
03
2F
14
28
00
3F
39
0B
36
03
06
36
0E
30
3C
38
38
3B
14
15
03
07
08
2E
2A
07
12
0D
02
04
35
2F
18
3D
00
00
08
39
34
0D
35
12
17
00
07
11
3D
3D
08
2B
13
02
3B
30
3B
3E
11
2D
2C
04
00
3A
00
32
0C
14
2B
0B
04
35
04
0A
36
3E
36
3A
3E
05
36
16
35
30
3D
14
12
0C
0C
0B
33
38
11
0D
27
2C
38
0E
13
35
30
2F
01
0F
10
05
31
08
00
2C
14
33
36
09
3A
08
32
2C
2E
04
2F
13
0D
2C
0A
3C
10
33
06
14
3D
13
11
0A
15
3D
00
05
3E
02
27
2C
2B
30
39
0D
3D
3C
13
2C
16
3A
32
11
3D
08
34
0F
31
30
0E
04
2F
2B
01
3E
31
00
12
3B
12
12
2C
06
36
04
3C
08
29
04
3E
11
3C
30
04
37
3F
07
2C
2C
37
0C
01
32
38
05
04
29
2E
39
3C
2F
05
06
0F
3A
0D
3E
2E
34
15
2C
2F
3B
11
03
13
35
37
15
01
0E
30
10
0E
38
2E
27
2E
29
03
14
2E
31
2F
34
08
06
3A
2F
35
00
29
11
31
27
3F
0D
12
06
35
08
39
3A
09
04
12
0C
11
12
2A
2B
13
2C
2F
2C
39
00
3E
36
13
2F
03
06
07
02
32
32
36
30
31
32
0C
15
16
2E
10
2D
10
35
2D
03
05
33
3A
0B
3A
2E
34
36
16
37
0C
07
31
3B
15
17
33
2E
0D
11
2B
27
07
29
01
3E
28
13
12
00
33
05
38
03
2E
2E
3B
0C
2D
04
35
2C
3D
2D
12
2A
31
05
08
16
28
2F
12
29
32
11
0F
29
0B
3B
2A
08
36
2D
3D
0D
11
2A
0A
34
3A
2C
12
3F
03
3A
03
33
03
2B
13
10
2A
16
12
2E
0C
04
03
31
3C
2B
05
12
01
0F
0E
2E
0F
0E
39
14
04
2E
3B
29
2C
14
38
0D
0A
31
05
37
38
39
2E
36
34
2C
10
09
13
04
36
3F
35
35
3D
11
13
0B
30
01
00
3A
02
01
35
0B
32
35
0D
37
2E
3B
31
17
03
2E
0E
3F
16
31
3A
3A
05
3A
14
2B
07
11
0E
2F
00
11
11
38
11
2D
0B
03
2C
31
31
3E
3A
09
2C
31
06
01
32
2C
3C
3D
3B
03
11
2F
09
12
2A
2D
2A
35
13
12
2A
30
05
35
14
13
17
0C
0A
3C
30
37
35
0B
3A
2D
0C
39
05
32
04
12
29
01
00
37
3D
13
3D
3F
31
31
31
32
3D
30
0F
2E
12
01
01
29
00
3C
15
13
3B
27
05
15
13
3A
02
28
0D
17
35
0D
03
3B
0D
3D
09
0D
02
3B
07
0E
2D
0F
0A
37
30
39
37
01
30
35
39
32
0C
2C
3D
2E
07
30
01
0E
29
0E
2A
09
26
3C
14
2A
3C
0F
0A
13
2C
0B
0E
05
13
0B
10
0D
14
08
0D
16
14
2B
2F
02
16
10
17
38
3E
09
2A
34
33
07
11
2B
01
3D
2A
35
0D
3C
0F
10
13
3D
0B
0A
04
12
02
2A
13
32
2D
13
0B
2A
00
02
11
2A
12
37
34
05
0C
28
01
32
3F
30
28
01
38
10
2A
04
2D
33
08
2D
06
16
29
15
04
07
0A
34
01
3D
2E
03
32
13
08
3B
27
3F
2D
10
11
2F
0F
32
02
3E
14
35
31
3B
00
14
30
27
3C
11
31
15
37
31
2D
14
2F
03
3B
3F
34
03
31
0C
0B
2F
0B
3D
3D
29
02
0E
2E
3B
14
05
2D
15
36
33
3E
39
06
3C
0A
16
33
17
3A
04
29
11
05
05
3D
0F
36
3E
37
29
3B
34
09
30
0A
0A
2E
2A
0D
31
3B
07
03
01
28
0C
15
39
0F
15
10
10
09
3E
3B
31
29
35
00
03
2D
2B
2E
08
01
02
2C
09
2E
27
3B
31
2B
09
13
11
12
04
3D
0C
16
08
09
2B
0E
0F
14
38
32
39
05
0A
04
38
13
04
29
34
2B
3C
38
36
3B
16
0F
29
3C
01
05
00
06
35
0A
15
2B
0B
3B
06
2B
2C
32
0E
26
33
30
09
16
2D
14
12
30
16
09
02
38
30
01
16
11
2A
35
31
14
13
17
11
13
16
2A
02
3D
09
0C
30
33
2C
37
39
01
3E
3A
2D
06
17
01
05
30
07
3C
0A
04
30
2C
0F
15
33
3F
37
00
0E
05
0C
11
3E
0A
0F
30
32
33
05
10
0E
06
09
08
2E
2B
0E
3B
0B
01
34
09
05
02
29
01
0B
12
36
3C
2C
11
03
3D
01
2D
0C
07
32
0D
2C
0C
31
04
03
3C
13
0C
3E
32
36
09
3C
37
08
16
2D
35
05
3E
13
3D
16
06
04
28
0E
3B
27
3F
13
34
0D
16
03
15
09
01
14
3D
28
3E
32
0C
05
0A
0B
13
37
30
3A
38
07
02
12
3D
38
33
32
2E
2D
29
01
2F
3D
38
02
34
02
13
2F
33
15
38
37
2E
03
38
31
16
26
35
2F
3E
3C
01
04
3F
08
2A
33
08
05
3C
38
37
0C
2C
2F
3E
14
04
11
04
04
28
14
38
2A
0C
11
2A
3F
12
01
3F
02
3E
14
03
01
0D
2D
04
2F
2F
15
3E
38
00
05
04
39
38
37
03
2A
02
05
26
3E
29
04
17
14
0C
30
36
39
0F
37
02
29
36
0A
0B
2F
39
37
09
36
3C
07
2A
31
34
10
04
3A
3B
35
3A
2C
13
0A
2D
15
03
31
3F
0C
0C
34
0C
30
02
30
39
05
31
01
17
2B
33
02
0D
16
14
2E
00
00
14
3F
2E
34
3B
35
29
37
08
3A
00
3E
3D
39
3C
04
12
16
04
3B
32
06
33
0E
11
2D
2F
16
34
39
28
2C
36
39
01
31
09
00
2C
10
30
28
2C
04
3D
2C
0D
2E
00
29
07
2D
2F
3A
04
02
3F
01
37
14
08
16
0D
33
0B
08
0A
3D
3E
3E
11
2D
39
0E
31
07
3C
3F
36
0B
27
31
0A
05
01
04
02
13
0C
04
12
2C
35
3B
11
28
13
31
05
38
3F
0B
02
13
05
2D
14
03
29
37
12
2E
31
29
36
31
01
3F
04
39
00
3A
2D
06
04
17
06
0A
2A
08
36
0D
29
03
36
3A
13
01
36
15
33
0D
0B
10
0D
16
0B
3D
2C
2F
36
33
0F
2C
3C
2D
07
2F
39
07
33
2C
2A
3D
30
09
37
33
35
2F
04
35
38
2C
3E
2B
39
37
02
06
06
00
12
35
05
39
39
01
07
3A
31
0B
34
07
05
36
28
0C
01
2C
3B
08
31
3C
3C
29
3B
06
30
05
2D
31
08
13
28
15
17
0C
3D
0C
11
2D
3C
0E
3C
2B
0D
05
0D
14
3B
07
10
16
0E
3D
31
0B
30
3E
32
39
3F
34
07
00
03
11
17
0A
0E
0A
29
0B
09
33
0E
08
00
14
15
2A
30
09
37
11
0C
09
0E
30
3A
12
2B
11
2B
0F
2B
00
11
04
15
3B
0B
06
3A
35
3C
29
35
11
3A
28
0F
13
01
3F
37
0C
15
28
3D
00
36
3D
09
08
07
36
06
2A
04
16
00
04
0B
0C
07
28
0F
0F
29
36
12
2C
2C
3B
30
15
3F
13
3F
08
11
30
34
2B
11
3F
03
34
09
16
0D
3A
0E
15
09
0C
37
29
3A
14
04
3A
3C
3A
3F
0A
04
11
35
3A
3D
01
3A
3C
02
29
30
13
03
08
0D
3F
3D
09
3E
3F
3E
0E
00
0A
08
27
12
16
05
2C
17
2B
17
34
35
17
3B
05
0C
33
0B
39
39
17
03
2F
04
2C
10
00
02
11
29
15
2E
38
12
29
01
0E
32
05
2C
28
15
0E
28
0F
2E
03
11
3C
3E
38
35
07
01
09
07
06
2B
0B
03
10
2E
2E
15
3C
0E
04
13
14
03
3D
2D
3F
11
30
0F
31
04
06
39
18
2D
2E
0A
28
0F
14
09
05
13
0F
13
0C
3B
2D
03
31
28
3C
35
38
39
13
14
01
09
06
09
2B
36
02
30
3E
39
11
05
15
12
2E
31
36
0C
2C
2F
33
0A
36
0B
07
3F
13
03
10
01
0B
12
33
12
0E
0D
35
32
3A
37
13
05
0A
3B
12
09
03
04
36
01
36
2C
2C
0F
3A
0A
11
2D
06
0B
06
10
2C
06
0E
29
39
33
36
2E
16
2A
36
27
2C
33
11
11
0A
0E
2B
0A
08
3C
0A
05
2B
2E
00
06
3A
36
3C
0E
33
3C
10
05
36
0B
2A
04
36
31
32
0E
32
2F
36
2F
3C
27
0F
0F
02
01
2D
30
09
31
37
11
04
39
30
33
04
06
2F
2D
2E
32
0B
35
10
33
06
16
2E
14
0A
12
39
3B
05
37
2A
07
17
01
3C
0E
15
15
28
0C
02
29
36
0D
0E
2F
08
0B
30
34
36
03
3C
33
13
29
04
14
09
30
2E
28
0B
12
2B
2F
0A
06
02
0E
14
3A
33
36
31
33
07
33
3E
38
34
2A
2A
11
0E
3F
2A
34
32
0E
3B
35
13
12
0A
18
0E
2E
02
3A
2B
36
31
3C
34
0B
3F
01
16
3A
2E
38
3F
32
31
2C
02
38
37
38
33
37
39
34
07
0B
37
39
05
36
29
39
0A
36
2C
11
35
2A
0F
04
17
05
38
2F
29
3A
2A
11
33
0B
0F
0B
04
31
3B
29
09
2A
14
0D
39
3C
3A
2F
37
2F
37
2E
15
05
14
05
01
33
38
07
39
3E
04
3A
00
3A
0A
01
13
32
3A
25
2E
2A
29
30
12
01
2F
04
0E
30
06
00
0A
29
02
15
16
10
35
0B
2A
06
0A
3D
11
12
07
34
13
0A
38
39
3C
32
35
36
3C
3B
0A
3E
36
06
14
3F
2A
02
3D
09
13
35
35
2A
12
2B
2B
0E
0C
0C
3B
14
2D
0E
38
3F
17
04
0A
33
13
0F
33
0C
36
15
08
33
01
05
38
32
28
0C
0D
00
33
11
07
33
00
04
28
11
01
3B
3F
11
0C
12
0A
35
04
10
06
02
0E
2B
27
3D
29
3E
13
3A
0F
03
0F
0D
2B
3A
38
3A
0C
30
15
38
13
0F
27
34
30
09
05
0C
13
10
2D
33
02
11
27
09
10
31
08
3F
04
27
07
07
0E
31
0A
12
12
3A
05
2F
16
13
12
2C
37
09
14
14
3B
17
3B
11
33
11
13
37
0F
27
38
3D
2D
2C
33
15
13
38
0C
32
3C
29
30
0B
30
10
15
29
0D
33
35
00
0E
14
3A
14
3D
35
34
13
2A
0E
34
2B
39
3F
3D
2C
03
16
3E
30
26
37
3B
3D
08
07
31
30
17
0F
38
29
37
01
30
3A
34
29
12
35
00
3C
37
2E
28
16
39
37
13
3C
3C
11
17
03
3C
2C
0B
3A
32
28
38
32
06
0F
0B
05
32
10
04
30
05
2F
30
05
00
35
04
3B
05
08
29
0C
2C
14
0C
3A
0B
37
3E
3D
09
30
0B
34
14
3F
3C
3A
3D
3B
2F
2D
12
02
3C
29
34
16
0D
17
2C
17
14
2F
08
36
2A
07
06
13
2B
0F
27
36
2E
0B
16
0C
12
0D
09
13
37
17
33
0B
3B
12
01
11
03
3B
29
13
0C
30
2F
2F
01
3A
2A
2E
2C
05
28
0A
13
0F
01
2A
34
00
3C
07
3D
3E
0B
3E
0D
11
00
39
3F
16
2E
0F
33
01
34
05
01
0F
08
32
32
12
16
09
3B
15
2A
0B
02
07
28
35
33
34
2A
04
32
3F
29
02
0E
0F
09
38
3E
2B
13
3D
3D
04
0D
11
11
16
09
05
2C
0C
18
2C
34
38
2A
3F
39
3D
39
06
08
07
39
3E
27
37
0C
16
07
08
0A
01
0E
0A
0B
37
07
31
08
33
13
07
0F
10
3B
15
2C
17
2C
3E
11
35
34
15
3A
29
08
33
0E
3A
0D
31
07
33
08
3E
10
02
00
04
3A
13
04
28
32
2D
2A
08
0A
33
05
14
03
12
02
0D
09
2C
2C
32
08
38
2C
2E
0F
0C
02
02
09
33
0C
14
2D
12
10
2C
0D
33
3A
2B
33
01
38
06
05
10
0B
38
13
13
11
3B
06
29
34
10
10
0B
08
3B
2F
0C
16
12
17
0A
0F
13
17
34
3C
15
29
01
3D
02
2D
08
17
0C
38
04
01
04
3B
14
0B
12
08
02
02
35
2F
2D
07
31
02
27
03
07
04
05
06
16
3E
09
39
03
11
39
3E
15
2A
09
35
3C
11
2F
3D
3F
0E
3A
3F
35
03
31
09
09
3B
2B
2E
02
0D
2A
11
14
10
31
30
0B
2F
2F
00
2C
3C
0D
11
14
3E
10
3F
2C
0A
02
0F
35
0C
0D
3C
36
08
09
3B
15
30
2A
2B
0B
08
36
31
0E
15
13
37
2A
08
02
3C
09
33
0A
0C
2E
35
08
33
08
14
2B
0C
05
3C
35
0E
2D
0F
3A
07
04
00
01
31
3B
29
3E
0D
26
3F
02
12
10
35
35
33
38
30
30
3A
2C
39
2B
2C
01
2F
04
2C
36
33
0F
37
11
37
0D
17
37
3C
36
06
31
2F
00
05
35
14
04
39
11
11
37
09
14
30
3E
0E
36
09
2B
15
2C
38
36
3D
28
37
29
2D
39
09
0E
15
14
34
0E
0D
06
3F
32
00
10
34
13
3E
34
11
30
39
2A
06
35
3D
0F
09
3E
10
2A
35
2D
30
32
04
30
06
3A
10
05
15
35
09
0A
03
12
36
18
31
3F
0F
01
2C
01
39
3E
30
09
2F
31
01
35
10
28
12
2E
0E
35
07
29
2E
2A
10
12
06
0B
28
35
03
06
39
3C
37
10
34
2E
0D
26
16
3B
16
04
01
31
04
15
10
3B
30
2A
0D
02
31
0E
09
3F
3E
2D
0E
35
31
0D
0E
07
16
3D
06
2E
08
30
12
32
14
06
12
09
0E
38
2F
0B
30
27
37
2A
12
01
32
2E
01
11
15
06
13
31
18
3C
3D
12
2A
08
0C
28
2D
2D
3B
10
0B
36
09
0F
12
01
30
2B
2B
2B
33
30
0C
13
0F
38
04
12
3C
31
06
0B
0C
08
31
10
02
28
14
06
2D
2D
0B
2C
08
0F
07
0A
2D
3B
36
06
38
00
0D
2A
04
03
15
10
32
03
3B
0A
3F
2D
12
2C
3E
06
11
12
35
0B
0A
02
13
07
07
34
37
2F
3E
2D
39
07
2F
28
3B
3C
31
10
31
12
3B
00
07
2D
30
02
31
05
3C
35
03
33
32
37
2E
2D
15
05
39
31
04
0D
36
08
0E
29
35
38
01
03
2C
13
13
16
32
34
3E
33
3F
2F
0D
3F
07
2E
37
36
07
35
39
3D
0D
28
17
35
09
35
14
0C
3A
05
09
3D
11
14
0F
0F
07
2C
0D
3A
3E
34
11
0B
2B
09
14
37
12
10
3D
2E
39
09
0C
27
27
10
30
02
08
08
12
28
29
13
12
11
09
32
04
00
36
2E
0B
31
2D
0A
13
12
12
16
30
12
37
03
2D
34
0B
11
0A
2D
33
37
30
07
3B
2B
33
0F
16
02
05
38
3E
3A
3E
34
14
33
3F
08
35
09
11
36
3A
3D
0A
10
38
03
35
2C
11
0F
05
0B
36
2A
3E
38
0C
26
11
34
30
0C
0B
0C
03
0B
39
0B
33
08
05
0E
3D
16
00
34
06
0A
36
01
2F
0A
04
07
04
00
05
08
0B
29
05
3A
03
0F
3E
3F
02
2F
15
0B
00
3E
13
11
01
3A
16
32
0F
2A
0D
0E
12
17
3E
16
03
0F
35
05
00
35
14
00
06
2C
05
37
38
31
08
05
3B
0B
2C
0D
03
10
3F
13
3B
04
07
05
11
04
09
00
2B
08
3C
01
06
16
09
0F
13
35
35
37
2B
07
33
0F
36
05
2C
08
34
34
07
15
0D
36
3E
15
35
0D
0B
0C
02
2A
37
0A
29
3F
0E
3D
00
0D
35
3E
02
32
18
04
2D
3C
3D
17
11
14
3D
0D
0C
2C
15
39
3F
33
31
11
2A
35
10
07
3A
16
09
10
3D
2F
29
06
12
3E
2D
0C
04
31
2D
0B
3F
0C
39
3E
34
3D
29
15
37
2B
00
34
32
3E
30
37
2B
0C
38
0B
01
0D
3A
03
05
33
17
3F
36
2D
06
31
30
3D
14
31
37
07
0E
2D
0E
32
04
37
15
06
3F
0E
31
3F
0B
3A
00
08
2D
0A
3E
0D
3E
3E
29
38
2B
2B
2D
0E
2E
04
04
09
2D
0C
0E
3A
37
2B
2F
2D
2B
01
0F
3F
32
3F
12
2E
2D
32
09
28
39
0D
0C
00
3D
02
05
04
29
33
38
35
2E
3B
01
0F
3E
34
39
3D
09
08
35
11
34
37
01
27
04
2A
17
12
2B
37
03
08
03
3C
28
3E
00
2F
0A
3F
0B
09
04
2A
3D
15
3C
01
37
17
38
0A
01
3E
00
3B
17
15
16
0E
08
11
0C
3C
32
2F
29
01
35
13
06
2A
32
28
33
00
05
33
03
30
3D
12
30
39
09
06
37
38
3E
14
11
0D
11
3D
38
0F
0E
29
3E
07
12
0B
3B
10
11
09
0C
01
3F
32
03
2F
2B
2D
35
11
0D
33
0E
0C
04
04
30
16
06
3E
37
0C
05
11
12
3F
02
27
2D
2C
3C
30
2E
15
3C
12
30
03
0E
2E
15
10
34
31
17
09
07
28
16
3C
01
0E
37
05
2E
0B
0D
0A
13
06
04
28
35
30
2B
3F
05
29
2B
11
09
05
3B
3B
3B
17
38
26
39
0B
3D
06
05
29
06
0E
00
02
31
3D
33
0A
06
37
37
14
2D
03
06
11
37
37
08
11
2A
0A
0D
3B
13
15
0F
17
3D
03
05
02
03
3C
06
36
0E
05
2B
3D
0D
33
01
3E
37
0C
38
3D
38
17
29
09
2B
09
2C
30
2D
14
02
13
29
16
33
14
2E
2E
03
2C
01
2C
31
31
36
3E
38
15
31
30
2C
28
05
10
00
3E
3E
2C
16
38
28
27
3C
3D
0E
0B
2A
0E
3E
04
32
33
0D
28
0A
04
29
00
00
2F
28
09
3E
2A
3D
12
33
3A
01
15
11
16
3E
12
30
0D
13
0B
2E
2A
07
0A
34
00
35
38
02
2D
0B
0C
0C
0E
2E
13
3F
3B
38
0D
2F
0F
30
11
33
2E
10
0F
04
37
13
09
0F
35
2D
14
3C
08
0E
3C
2E
09
36
3F
11
15
05
34
0B
04
2F
34
11
35
0D
0C
0E
3F
38
2D
3A
0F
01
3C
39
3B
3A
31
0F
39
0E
32
01
33
35
3A
30
2E
34
2E
3E
3A
28
29
14
32
0F
33
3D
00
3A
2D
2E
2B
3F
36
2D
30
16
2A
33
11
2E
10
00
01
04
02
3B
14
07
03
33
3D
14
01
06
2D
2D
06
0F
2E
3D
13
05
10
11
35
3A
01
2A
01
16
34
2F
15
03
12
36
36
2C
15
12
29
11
0E
34
30
00
37
06
14
03
0A
16
0E
2B
38
09
35
17
3A
33
3C
12
00
3D
28
02
01
15
07
3E
0E
05
0A
0D
28
02
3F
05
30
3B
2B
3B
34
09
3E
3F
34
2A
33
29
3E
39
35
38
38
13
39
35
00
00
27
09
13
17
31
35
01
31
17
15
3B
3C
32
0F
29
33
0A
2D
2C
3B
13
30
12
06
0F
10
30
2E
3A
07
3A
30
0C
37
0E
08
35
03
00
14
2D
10
30
14
0C
29
0D
09
31
34
3F
2D
0E
36
2C
2E
0A
00
0F
07
2B
14
2C
00
11
31
3D
0B
07
36
38
2A
2E
28
3D
11
01
30
09
13
2C
35
3F
03
34
07
12
32
2E
3F
37
2B
16
39
33
3D
14
16
03
34
0D
2B
3E
17
17
0E
38
38
32
3C
04
13
08
34
2B
3D
37
13
05
10
3B
0C
2F
07
33
0F
3E
38
09
32
05
36
3F
2A
10
06
07
3E
08
2B
07
0D
13
3A
29
0E
31
2F
3C
3B
2D
0C
01
03
07
11
32
3A
13
2C
3E
0F
16
0C
11
0A
38
0E
29
0A
28
04
33
3D
39
34
2A
17
26
0E
32
04
06
17
0A
10
31
3E
14
11
37
04
31
33
3F
3C
38
28
3E
10
01
28
0D
0D
31
00
16
11
14
14
2F
00
37
02
33
2B
2C
07
01
10
31
36
33
03
2F
07
3B
3F
3F
18
06
0E
13
36
38
0D
2A
14
08
06
0C
3C
0F
2A
0F
29
36
39
36
0B
32
14
33
02
02
07
39
16
10
37
02
28
06
00
2B
10
0E
0D
11
10
32
10
01
2D
2F
0B
03
05
10
0A
09
0E
35
00
3B
18
2D
11
32
09
18
0D
31
10
3B
0F
31
13
07
02
36
3B
0D
0F
2E
05
36
3B
2C
3F
0E
05
3F
17
06
09
3E
32
3A
14
07
38
36
35
01
32
06
3B
00
11
33
3F
33
32
09
08
08
2F
37
13
34
2F
35
3F
08
2D
2D
39
2C
38
32
0E
2C
28
3E
3D
39
04
07
3C
34
0C
30
04
00
0B
3C
3B
0E
0B
3E
04
30
03
08
03
14
39
3A
2C
2C
13
01
12
11
01
11
30
02
31
37
39
10
10
13
02
00
0D
31
36
00
3B
0E
09
0F
30
2F
00
3A
17
36
3C
39
10
00
35
0A
08
12
2B
3B
15
3F
3B
08
0E
33
39
33
08
01
02
0C
0E
0B
17
0B
13
18
33
07
02
2C
01
30
35
3A
02
31
33
35
0E
3A
37
0E
04
33
2A
0B
2A
12
18
2E
3E
03
0A
06
33
3A
2C
2A
3C
0A
2E
10
13
35
3E
35
3F
03
14
0D
0E
10
18
39
33
2A
38
39
35
37
2C
38
13
37
30
15
08
08
0E
16
0F
30
33
17
29
33
35
2B
3A
39
3E
2E
09
0B
3D
32
3E
12
3C
15
31
30
05
10
34
2F
2F
04
36
3F
0A
36
0F
0C
10
31
15
37
0F
2A
11
28
12
31
09
13
15
2B
30
36
36
3A
09
16
02
0F
3C
38
08
2B
0A
3E
07
3E
00
0E
0C
04
35
3D
17
15
0E
33
14
00
08
07
05
11
3A
3E
0E
0D
3A
02
36
37
15
29
12
3C
2C
38
38
3A
35
14
16
14
28
0F
13
07
28
0F
3C
33
32
09
10
16
37
14
16
16
36
07
09
01
05
26
0D
07
0E
0E
31
2D
14
29
17
2A
08
0B
12
27
04
16
2E
02
2F
16
0A
0F
3A
15
07
02
31
0A
36
12
29
08
3E
29
36
03
0F
0A
07
16
09
09
3D
04
37
07
0F
06
2D
3D
31
11
36
32
33
31
03
35
06
01
28
2E
06
28
06
0D
2C
0E
30
0D
13
13
0F
3F
07
0A
16
37
10
2A
34
3C
0F
04
2A
34
37
18
0E
0C
0B
31
01
2F
32
08
33
2A
07
35
14
3C
3B
0B
2B
16
26
03
2F
2B
06
2B
10
00
3A
3A
05
31
0D
30
03
0A
37
3B
33
0C
39
38
2D
09
03
0D
0C
15
03
31
11
11
08
14
02
35
37
0E
28
0F
33
0B
09
3C
14
39
3B
32
34
33
3F
0E
30
0F
2A
2F
33
02
0B
2C
31
30
11
07
33
0A
15
2E
31
32
2A
02
31
00
07
06
15
29
0C
3E
11
05
0F
15
28
0F
0A
15
2D
0D
13
11
28
13
30
02
01
15
2C
00
0A
2B
0C
0F
37
2C
17
33
2F
07
2F
2E
13
14
3A
2C
15
00
33
02
3A
07
3C
3A
0C
05
15
04
08
2A
08
06
12
07
37
38
08
31
17
32
0C
28
0D
3D
07
2A
3C
3E
05
2D
08
28
0A
2E
2F
39
38
2E
0D
2A
3A
28
0B
35
2E
2E
39
34
2A
29
0D
37
16
12
38
28
2C
35
02
0E
39
3A
35
31
0B
2E
09
30
35
13
3F
09
2E
02
00
0F
3B
13
3E
0A
27
00
0E
01
06
2E
02
35
30
29
32
29
2B
31
2E
32
03
2A
08
16
03
06
03
36
27
3F
11
00
3E
37
39
11
0C
0A
32
12
0C
0B
28
16
34
2B
06
14
3F
3C
00
2B
3C
30
11
34
11
3E
0F
10
14
2F
3B
0B
13
37
37
2E
2C
2E
0A
37
16
00
34
3D
28
3D
14
29
32
10
33
10
30
11
06
03
17
16
2B
13
39
31
0F
05
00
14
36
28
0A
3F
2D
01
14
0E
0A
3A
27
00
18
05
37
04
17
08
0D
0B
17
3B
37
34
12
2B
2C
0D
33
14
10
16
10
3A
03
33
3C
16
2C
34
09
2B
36
11
08
14
37
38
2F
29
29
2C
0D
3F
14
0F
33
2A
0E
3F
37
09
0B
32
02
38
11
36
3E
01
0E
34
38
2C
13
02
09
31
2E
2E
0F
34
3B
2A
2F
11
06
05
2C
0D
0E
14
3B
0D
2A
38
09
38
2C
05
0E
11
3E
39
2E
05
06
05
04
08
3F
33
13
26
3E
15
11
0C
3E
2D
13
0A
04
2C
0B
0B
36
0F
3F
16
11
3F
31
3D
2E
15
14
3D
29
06
2D
32
30
3D
12
32
38
3B
2B
3B
0C
04
13
34
38
38
2A
32
03
05
31
14
39
3D
0B
15
0D
0F
3D
0C
2E
3A
16
0E
29
32
34
28
11
2E
2B
16
09
14
2B
38
28
03
06
3C
08
0C
37
04
35
0C
32
39
36
2A
0E
38
3B
33
31
0A
09
35
02
0E
0E
0B
2A
3B
0F
04
0A
06
3A
00
2D
10
3C
09
2D
3D
05
3A
30
13
14
12
00
2B
06
01
28
3F
05
3F
3D
29
0A
0B
37
3A
06
04
36
14
03
14
15
10
3A
3D
11
28
01
11
38
13
35
05
3D
0B
0C
00
0A
2D
03
36
3F
2F
2E
38
0F
3B
37
36
2E
0F
3D
28
14
3A
07
00
2A
2C
31
10
3D
03
10
10
13
0C
3F
3F
38
01
07
14
17
07
05
28
03
30
07
05
07
04
3B
30
36
2D
0F
2A
14
2B
0A
0E
2A
3A
11
2B
2A
33
10
05
39
2A
3E
03
3F
38
12
17
33
00
37
06
07
2A
3C
06
16
3B
0C
01
2C
30
39
3D
09
15
15
2B
00
0A
29
12
04
13
3C
27
3F
12
2B
3A
16
09
04
2F
03
08
0A
3A
14
0B
12
03
2C
35
30
39
35
03
0C
32
27
3A
01
09
3D
14
31
27
14
09
16
0B
2F
0B
0B
00
03
3F
14
0D
19
08
13
3B
28
2B
0D
15
39
0C
0E
06
06
0F
03
29
08
3C
36
35
31
3C
35
36
31
14
11
34
13
07
30
29
06
0F
12
0E
15
3A
32
28
0B
14
36
07
00
10
29
0B
2A
37
04
04
14
29
09
3C
3D
3B
34
01
11
2B
02
29
3A
26
34
2F
30
39
38
36
02
39
3A
15
11
36
3F
2A
38
15
2B
3F
16
2F
2A
13
11
11
16
12
3C
15
0B
2B
31
09
0A
03
0A
0D
07
09
2D
3F
2B
36
30
33
02
2F
15
39
0B
3F
0B
0C
09
2D
38
16
0F
10
33
3D
2F
03
3D
3D
3F
3B
05
2B
0B
2A
0C
29
17
3B
36
3F
02
3D
09
35
37
38
06
0C
3F
08
37
3A
2D
04
0D
11
0C
03
39
06
3F
2A
03
12
0A
16
35
0A
37
3D
09
35
2E
39
2E
28
0F
2A
36
28
2F
07
30
11
3A
17
0E
3A
29
0C
19
2F
05
32
05
11
14
10
08
39
0D
2B
08
04
3E
2A
02
32
34
34
3E
35
29
3C
36
13
38
07
0C
28
2E
3B
0E
34
0C
00
32
07
39
36
3A
10
07
05
00
2D
0D
31
0F
15
36
0E
02
36
09
29
17
0E
09
37
3D
3C
12
0E
05
10
08
11
0E
3F
15
2F
06
37
2F
36
31
3E
3B
2F
3F
01
3D
3C
16
3C
03
12
31
3A
3A
3E
07
3E
0C
02
09
39
32
2D
37
06
05
09
37
35
02
2D
28
2C
01
06
37
35
3E
0C
34
0F
33
10
36
3A
30
2E
0C
31
3A
2E
3B
06
3F
2B
2B
3E
10
12
05
38
06
3C
29
2E
04
34
28
2C
00
14
03
0D
37
10
04
00
31
35
36
0B
3C
00
04
14
36
0F
02
06
2A
11
03
04
14
0A
26
3B
08
0F
0F
35
35
06
05
3D
2E
07
0B
02
27
16
08
37
39
13
16
0E
31
16
3A
2E
32
16
35
05
31
0A
32
39
02
31
0D
12
29
15
03
0D
07
12
38
06
3B
3E
35
09
2A
0F
35
0E
30
02
35
07
2C
35
13
35
3C
07
05
3F
2C
01
32
0C
11
0F
03
2A
00
16
17
2E
3A
39
0C
3E
16
3C
0D
0D
36
07
3F
3D
12
32
16
0D
09
2C
33
2C
2A
15
2C
0C
06
31
10
2C
2C
0B
16
06
28
3C
0D
10
01
06
39
27
07
05
39
06
14
02
0D
18
0E
2B
2C
2E
32
06
18
38
34
27
39
17
34
13
0A
2B
3A
3B
33
09
2A
01
15
03
3D
0D
00
39
0A
17
3B
37
03
38
3C
10
17
00
03
2A
0A
06
0C
30
15
32
0B
0E
3C
30
2C
02
36
32
3E
29
2E
39
33
38
2A
0E
06
3B
36
33
27
10
09
16
07
06
2F
09
03
0B
01
0A
0B
3F
15
39
3A
01
29
0C
13
08
31
3D
05
3E
2A
30
32
10
3D
3E
12
16
00
02
10
0D
2D
0E
2A
0A
2F
37
33
00
04
32
14
39
14
36
28
13
32
0B
16
2E
0A
0D
09
15
2E
0E
0C
3C
01
2C
0C
3D
37
08
28
0C
02
15
33
05
3B
3B
29
3D
2B
16
0F
14
34
2D
37
3B
14
3D
3B
00
3A
3A
33
0D
33
33
2A
38
35
09
2E
02
30
00
01
12
02
09
12
3D
36
03
39
3B
28
2D
2A
2E
28
10
38
2C
3D
06
3E
39
35
0B
11
39
07
05
03
17
31
11
06
35
29
04
16
27
3F
06
3E
31
13
03
2A
15
14
2B
0F
34
16
04
33
32
0F
2B
01
0A
0C
14
30
2B
34
3C
12
3C
2C
0B
33
37
3D
2E
09
0A
36
34
0C
30
03
3F
32
03
38
00
39
08
12
04
07
34
30
06
00
00
05
10
0D
2D
15
04
3E
08
15
38
0B
05
01
32
08
33
37
0B
0F
33
13
2A
34
11
2A
10
3C
11
3C
14
2B
29
2F
38
34
0A
2B
02
0A
3B
02
09
3F
08
3D
0B
0F
34
0C
37
07
29
32
0E
28
35
11
3E
37
0F
0B
37
3C
31
2A
02
0E
34
04
36
2D
3E
27
3B
00
13
0B
07
0B
3C
03
31
0F
16
38
33
02
3B
06
39
37
3E
3A
0A
0E
05
2D
35
11
28
33
34
0C
36
04
17
0C
13
0C
0D
16
3F
3C
3D
33
18
06
0D
0C
2D
0A
28
34
37
2D
39
03
30
04
2F
2E
2D
35
09
07
39
2C
3A
14
07
38
3F
2B
0B
12
29
2A
0D
3D
29
07
3A
35
3F
0C
05
01
0B
11
0A
2C
12
31
3B
3B
04
2F
2B
07
2C
39
16
3F
0F
2A
37
04
0A
2E
18
14
2E
11
0B
09
30
16
07
09
0C
35
2A
00
15
31
32
02
09
39
36
34
29
0E
36
14
16
02
10
09
13
3B
31
34
0A
2B
2E
2B
10
0E
08
3B
31
34
03
39
3B
0C
29
00
31
2D
0C
01
12
0F
09
13
31
33
09
08
36
2A
0C
10
15
3F
27
2C
13
3A
03
2E
01
2B
0A
31
3A
3A
3F
34
39
14
3D
0A
35
05
11
3C
2E
16
10
3D
10
0A
29
36
32
0F
10
3F
0A
09
04
2C
2D
2F
05
3D
3A
09
12
30
15
2C
0D
2F
3D
16
0C
15
38
16
31
06
32
39
03
32
04
32
01
0D
3A
28
03
39
13
06
32
16
13
13
16
01
2B
29
04
03
2E
13
13
2E
11
05
31
30
09
17
0A
07
2C
2F
0A
11
0C
02
2C
01
31
2C
2C
3C
0F
15
17
01
29
03
04
0A
3D
31
12
12
0B
16
2F
03
00
29
04
03
18
2A
0D
12
09
04
36
0E
2A
17
09
35
32
36
2B
31
0C
33
0C
10
0B
2D
2B
29
32
2E
12
11
00
3C
13
00
2E
35
3B
0F
0A
3E
2F
3D
34
02
29
03
02
2C
3E
04
0A
3E
30
11
16
34
3B
3C
2E
3C
36
36
2B
3E
05
3E
06
05
13
06
06
33
0C
2D
0F
2D
34
0B
01
2E
00
29
3A
2C
05
02
0F
13
31
0A
2E
0F
38
0F
0F
0C
39
2F
37
2C
11
31
28
17
03
32
3B
10
12
09
2F
05
0D
10
16
07
3A
07
2C
3D
2A
2C
2E
16
39
01
0F
3E
10
05
0A
36
00
3B
34
2A
3B
13
31
2C
2C
3E
3B
3B
2F
31
04
39
2F
12
11
15
15
0A
0E
08
34
0A
32
3B
16
39
12
11
13
34
02
0C
0A
37
2D
32
28
3C
02
10
02
3B
3E
0E
0C
02
2D
3D
0C
10
0F
03
35
3C
37
09
36
2C
09
10
2B
2D
09
08
35
28
3F
06
05
33
01
3C
10
07
0D
37
34
3E
06
02
2A
01
3E
39
33
12
10
02
33
13
3A
2A
04
2D
2A
38
39
08
0F
0E
34
14
15
30
16
39
05
0E
34
15
3A
33
12
34
0E
0A
04
3E
32
0E
2D
05
0B
35
36
2C
31
0C
02
2A
3A
11
0E
3A
09
07
2C
0E
06
09
27
39
35
2D
28
3C
17
2E
04
02
33
13
30
0F
33
14
3C
30
03
2B
37
37
2F
06
36
06
3C
2F
2A
16
34
31
28
0C
0E
11
30
0E
08
13
08
06
0D
0B
3C
13
33
27
35
09
30
34
2A
37
37
03
14
0E
0E
3D
3A
14
05
17
15
0B
30
3C
26
04
05
29
0B
0E
33
13
06
30
17
2C
17
08
35
38
2D
36
38
2B
12
08
39
32
2C
00
2A
29
01
01
35
16
2E
05
3B
0F
0B
12
0C
37
3D
2A
38
15
0B
0A
30
12
0A
05
2A
38
37
0B
2C
28
00
28
2E
10
03
27
39
31
15
2E
37
28
0C
06
2C
31
10
03
16
2E
10
34
0F
2E
2B
02
31
2A
2A
01
13
37
2A
04
00
02
17
2A
0D
01
00
2B
13
13
06
38
3D
3F
11
04
3A
0C
04
13
31
15
04
2B
13
2A
11
31
16
28
3A
28
3C
09
0D
3D
0C
30
08
04
3C
2F
0B
0B
30
33
12
0B
0B
3A
33
29
0A
0D
13
28
2F
07
0E
36
14
31
10
2C
15
34
2E
33
01
0E
13
38
3A
02
0A
0C
14
04
29
00
2D
2F
38
11
2D
36
3A
05
33
31
10
3E
3B
35
08
12
3C
0B
30
30
02
0D
3C
07
37
32
00
0C
00
3B
3F
16
34
06
17
29
30
29
2C
01
11
35
39
0E
09
00
12
0B
0F
0F
0A
3F
07
36
2A
11
39
37
3B
0B
3A
15
16
13
16
28
2A
0E
3C
2E
30
30
34
0C
14
34
3E
16
37
2A
2F
0C
12
0A
0B
0F
2A
07
03
0F
2D
14
32
01
05
3A
0C
07
33
2C
35
04
11
15
13
39
34
06
33
28
29
14
38
01
2B
3F
3B
39
2A
04
2F
31
31
0E
3E
08
17
3C
38
2A
06
33
0A
3D
07
2D
3E
06
14
3B
38
07
04
36
3F
0E
3D
28
12
03
0C
11
3C
07
3C
27
0F
31
04
38
14
2F
02
3F
2F
11
05
2F
33
13
3D
2F
3E
30
06
3C
14
3F
37
0D
16
31
14
3E
39
28
3F
0B
33
12
35
0A
2D
3E
02
08
28
05
27
0E
29
39
36
37
17
03
11
3C
07
03
3D
04
03
2E
14
28
3D
37
39
3F
0B
07
2D
3C
38
17
00
0C
0A
06
0A
39
3F
2F
0B
2A
08
36
09
0F
04
37
32
29
05
18
14
01
09
02
10
3D
2F
05
18
3C
00
16
15
2F
0A
08
09
13
3A
3F
31
10
36
02
30
02
10
2D
37
3D
3D
37
35
2D
35
04
0C
2B
3F
2D
02
0E
2A
31
3A
33
06
02
3E
38
0B
38
36
10
0E
34
2E
32
0B
3A
2D
37
2D
36
01
08
05
2D
39
34
09
35
38
10
04
10
3F
2F
28
04
04
09
3B
38
2F
3C
14
16
31
07
38
10
3F
0D
0C
02
31
13
16
34
29
3D
06
08
35
0A
12
38
3A
29
3F
37
12
38
28
29
15
03
00
3E
08
07
16
3C
28
06
35
37
03
35
0F
17
0C
38
2F
00
36
0E
12
08
07
3A
05
30
32
28
3F
3C
09
35
14
0E
02
33
15
33
32
3E
37
3F
2C
3E
15
10
3A
2B
35
05
0F
13
14
06
2E
07
35
12
2F
07
3D
10
0E
07
37
18
0A
2F
05
36
2F
15
34
10
30
0C
34
01
27
2D
0E
04
36
35
14
3A
09
04
15
3D
38
31
2D
3E
04
0F
03
3B
38
28
38
15
29
3F
29
17
3E
30
33
29
04
38
3D
0B
29
0B
33
11
30
35
08
39
3E
38
3C
00
07
3F
06
2A
28
0F
09
38
38
0B
2C
06
32
01
12
2E
0A
06
35
07
17
2C
11
31
07
0E
0F
05
30
03
33
3E
2E
02
30
39
36
07
2D
3A
10
3A
04
30
0B
34
2C
3E
2E
39
29
3C
38
03
06
37
2C
16
37
0A
38
36
35
36
08
16
09
3C
09
3D
38
37
36
02
29
16
2F
0B
0F
39
34
03
06
2A
10
37
0E
11
0A
02
3C
39
13
11
11
2B
0A
14
04
39
0B
32
02
0E
03
11
15
07
2A
00
13
2E
00
31
0E
0E
33
02
3F
00
2D
34
3C
32
2B
27
0A
2B
27
2B
03
09
29
0C
08
07
3C
15
35
07
34
0F
05
16
0E
39
14
3D
3C
3D
14
08
34
35
0D
0F
36
0B
3E
10
3F
13
17
15
29
2A
3C
14
2C
3D
2B
13
30
3D
06
36
2C
06
39
2E
10
3E
30
32
0F
33
30
3E
2C
05
27
15
39
13
3A
03
2A
09
30
07
3E
30
07
30
2B
38
05
09
08
0A
2C
12
06
09
31
27
0D
2C
13
2E
3D
30
3B
16
38
35
13
3C
2B
03
34
36
07
03
10
35
30
3F
0B
38
31
35
3B
00
37
30
2D
39
3B
2A
36
32
16
00
3E
29
02
34
36
2A
00
0F
09
09
2E
11
05
2C
3D
02
3A
14
32
29
15
05
08
10
05
37
2F
3A
2C
12
2E
11
2A
17
2A
33
13
14
3A
08
00
3C
0B
0E
2B
3B
39
0C
10
2D
35
08
36
00
11
3F
30
11
39
38
14
29
04
32
00
32
03
38
28
17
31
11
3E
0B
3A
14
29
04
09
14
0B
12
2B
07
0B
11
2F
0F
3E
07
12
01
0F
05
29
2B
02
3F
3F
0C
38
10
35
15
31
2C
3D
3E
0D
03
3D
27
09
00
3A
0A
06
17
2D
11
34
0C
09
05
30
14
0C
15
0D
38
28
00
0C
0A
07
2F
3C
2E
29
3B
35
0C
01
29
02
34
11
35
3A
2F
35
01
10
2A
07
2E
03
3B
3E
2C
04
38
09
3B
13
11
3C
08
30
07
0E
3F
30
3B
34
31
15
04
2C
14
10
0E
2B
2B
31
37
2F
38
27
15
05
0E
11
2E
3A
33
32
33
3B
2C
3B
38
3B
13
31
2C
0E
0D
37
04
03
0C
11
0E
01
29
06
0B
28
3B
0E
37
0E
15
04
0B
09
09
2C
10
29
0D
2C
0C
33
39
0A
0D
3A
0E
29
3D
02
3D
3E
31
32
2E
36
36
37
06
3E
3F
34
0F
2D
2F
3F
14
00
01
3C
34
2B
36
37
34
34
29
09
10
2B
09
0B
0D
0E
3D
0F
32
3F
10
0F
3A
3F
0A
28
0C
14
14
38
0F
03
28
34
3B
2A
0E
10
30
33
02
03
3A
2C
05
12
34
3F
18
3B
01
31
34
2F
2F
0F
00
31
12
04
2F
09
3D
03
2F
16
3C
14
13
11
3C
13
29
04
29
3A
03
07
3F
03
3A
0A
0F
3C
0C
2A
0D
32
17
33
36
37
10
15
04
3D
05
32
27
14
2D
3B
36
2D
3E
2E
2B
11
2B
13
07
2D
3E
3A
2E
2D
3A
17
14
37
0F
08
11
0E
0E
33
2A
0C
38
03
08
0D
3F
12
0F
0A
27
33
3D
3B
0E
08
00
02
0D
12
33
17
01
29
05
38
03
0A
05
04
28
34
0A
07
28
09
02
34
0C
2B
33
05
32
3C
35
28
3C
08
2D
0C
39
3E
37
0D
07
2B
3D
0F
39
00
07
2C
35
36
3D
36
36
12
3B
0C
2E
06
15
14
3D
2C
29
03
06
3E
3A
09
2B
12
38
0F
29
33
3D
15
29
27
05
0F
15
05
09
03
36
01
3D
38
39
14
3B
36
35
28
11
2B
3C
3B
34
18
37
3F
30
14
3B
3E
04
0A
05
17
3C
35
17
38
35
39
06
00
03
34
36
0E
01
10
2D
03
13
2D
3B
28
0D
0A
33
2C
3D
3B
0B
31
12
3C
0E
15
01
33
0F
3A
04
2C
07
08
14
17
12
36
03
38
0C
3A
15
0D
32
02
06
03
2A
08
15
0F
14
05
0F
05
2E
15
07
0F
07
30
3B
13
16
3C
0C
32
04
37
0A
06
3D
39
14
2B
3D
38
0D
35
37
05
3C
34
09
32
37
11
16
2C
0A
06
2E
3A
3F
3C
39
13
3D
30
0A
06
3F
3F
0C
2E
28
12
11
10
3C
08
33
2D
0A
3D
2E
02
39
01
11
3C
36
3E
0A
01
05
2A
14
31
2F
3F
2F
36
30
37
15
05
10
37
37
36
0F
28
36
38
0D
06
09
39
0F
2B
29
28
2F
10
2F
2C
03
0D
0E
14
12
0D
0B
34
0A
2C
33
26
34
02
35
15
3D
3F
07
3D
34
39
02
35
2A
2A
3C
17
10
12
01
0C
2B
3F
32
15
0E
05
07
14
14
11
3C
39
3A
32
12
16
30
06
3E
2E
2B
0D
07
3B
2E
2B
3E
06
39
06
17
05
2E
0B
11
29
3B
30
36
3F
2D
29
0A
29
14
3D
04
08
33
30
34
31
28
13
0B
14
34
03
2D
30
35
06
13
31
17
30
10
38
3A
0A
04
3C
3E
0F
33
27
33
00
03
07
16
34
2A
2D
07
3D
3E
26
2C
3C
13
04
33
32
01
0A
08
3A
31
3A
28
07
2C
2C
12
09
3D
05
29
13
3B
29
39
33
11
0F
2C
35
37
08
30
02
29
2E
0B
36
0B
16
3C
01
34
05
38
2B
09
38
16
2D
3C
36
2A
2A
39
3E
2A
0F
3D
35
28
13
3F
07
15
27
2E
15
14
03
2A
35
13
3D
0F
3D
2D
29
3A
32
3B
0F
1A
02
0B
0B
3E
00
0D
04
3E
17
2F
29
3A
05
38
28
32
01
30
2B
02
3B
16
31
00
38
34
3D
2B
13
0F
29
29
15
12
2F
30
30
35
04
00
34
39
14
06
39
33
12
36
15
29
11
32
09
2D
0B
04
15
10
3D
32
09
2A
0B
31
38
3E
2C
0D
0B
32
0B
02
2B
01
0B
09
3B
33
3C
0C
06
2A
12
0C
3D
31
0D
30
31
0C
34
38
37
2A
0B
30
30
36
3F
17
35
01
0B
08
0B
04
31
2E
15
27
12
31
02
0D
3A
31
14
2D
2D
35
2A
2B
2F
28
05
04
32
00
2F
2E
02
14
05
38
2D
2F
01
3D
3E
01
10
37
3D
39
33
36
36
3C
0F
37
3E
2C
08
0C
36
33
17
3C
39
33
05
2F
2A
38
29
0B
2A
38
30
06
39
03
0E
04
38
01
05
2C
3C
2C
3E
0C
2E
14
35
34
3C
37
0D
0B
27
3F
2F
10
0A
39
0D
32
29
11
38
16
3D
34
33
34
31
01
2B
06
28
0C
3C
13
33
3F
0E
36
2B
09
02
14
2E
3A
37
14
0B
0D
2D
03
3B
38
33
08
04
14
31
00
0E
13
2F
3E
28
14
2D
32
35
0E
01
38
39
3D
30
2A
0A
3F
0A
3A
3E
0E
06
01
3B
39
3D
2E
33
02
0B
34
01
16
15
09
0A
15
33
03
36
3F
3E
3C
0A
00
16
09
09
34
0F
01
3F
39
27
2F
3B
3D
36
17
32
3A
00
2C
2E
3D
12
0F
0A
3F
0F
34
3B
30
31
3C
0D
37
32
39
13
01
2C
2D
2D
08
2F
33
2C
04
2D
0C
15
07
2C
0A
0C
3E
0E
16
3F
3E
3B
0F
0E
2C
3A
2A
13
13
3B
10
09
0B
0D
01
09
13
3B
37
10
17
3C
3C
3F
0C
06
07
34
37
07
16
09
0B
29
33
35
0D
29
06
05
13
31
29
0C
37
2C
3B
0A
2B
39
36
36
0F
05
05
02
18
10
2A
32
29
00
00
29
2D
39
3C
06
14
13
00
29
17
01
3A
2B
0F
06
04
13
07
32
0C
0F
2D
11
3A
10
3C
0A
3D
08
04
02
16
0F
0B
33
06
37
08
17
2C
3D
2E
37
07
11
08
35
00
0C
09
32
06
35
37
14
3B
34
03
35
08
3F
06
0C
11
3B
39
11
30
31
00
39
3D
16
10
04
13
07
01
31
31
3F
00
04
2F
06
11
08
07
32
28
06
30
2F
10
0D
38
2C
35
15
2E
0A
3E
0E
08
31
16
29
33
10
31
0F
2E
3B
0D
11
10
33
2B
2F
31
3F
0F
2A
38
15
3C
08
11
29
2B
12
0F
09
2E
3C
14
36
30
2C
0F
39
06
30
33
35
0D
01
14
39
15
05
13
31
2F
30
33
2B
06
08
2E
10
3E
31
38
2B
2E
3E
2D
38
36
33
0C
3E
32
30
39
3D
01
2C
16
31
31
09
2D
28
0A
0F
38
08
13
11
13
37
38
28
39
11
35
34
2A
11
33
0B
0E
2C
06
13
0E
33
0D
03
12
0F
01
02
37
2B
38
03
0C
0F
37
04
08
2B
14
15
2C
15
38
2B
3A
0D
0D
16
30
14
16
29
0E
02
27
37
28
01
14
14
01
37
0C
36
36
0E
05
38
30
26
2C
35
01
3F
3A
2F
00
2D
08
32
27
0B
14
39
3B
06
10
3A
01
13
00
15
2F
3E
02
32
07
09
2B
2A
0D
0F
13
29
2D
00
11
0D
3B
32
3B
2C
0C
0A
3B
0D
29
3B
3B
37
2A
3F
31
32
0A
2B
2B
03
28
3D
04
17
3C
38
13
0E
0C
06
0D
3D
2F
06
2A
37
08
15
13
3A
0A
3F
3D
13
02
05
17
14
2D
0F
12
16
02
0D
0E
0E
28
11
09
3B
36
15
12
3A
09
31
3F
3C
27
39
0E
03
29
30
0D
2B
33
2D
2B
3C
2F
0B
00
35
32
34
31
17
01
3C
10
10
2C
35
29
0D
00
29
34
30
28
33
0F
3F
14
0B
17
27
33
15
05
14
28
30
35
37
30
01
12
2B
14
31
03
0F
3D
14
2C
06
0C
0C
33
12
3E
04
2E
3A
13
0E
13
33
39
15
3F
08
39
31
00
0D
08
01
3C
2B
3A
0C
0E
30
3E
36
02
34
32
39
06
12
38
0A
14
3A
00
36
29
13
34
2D
3D
10
3A
03
13
05
30
07
31
05
33
2B
08
13
2D
28
2A
0B
10
08
3A
05
07
03
3F
33
08
3C
0A
2E
3F
12
2F
17
37
05
38
09
2D
15
31
32
3B
31
12
31
2B
12
3B
14
12
2B
38
0E
38
14
27
0A
07
28
06
07
07
0E
13
31
15
3C
10
31
2E
36
30
3E
36
3D
05
39
10
02
2A
37
07
06
2F
14
07
2C
35
37
0B
10
0D
14
08
11
06
12
2E
07
2A
07
15
14
28
07
0D
3B
06
2D
2D
36
04
08
34
36
05
01
0B
03
0B
10
06
07
07
2C
2E
09
32
3E
11
2C
30
33
09
39
12
0E
30
00
2A
30
39
33
30
07
15
02
00
2E
2F
3A
29
28
2A
17
08
01
0C
2C
14
28
0B
0F
2F
2D
36
06
3D
2F
05
10
2A
11
0E
07
01
31
09
2D
07
0F
36
28
12
12
2D
11
01
0B
0A
09
0F
04
12
0A
36
27
13
35
3A
2E
0B
0E
32
35
34
0F
3C
2A
2D
3A
33
00
0D
2E
15
34
0C
03
08
11
05
2C
38
34
3E
35
03
13
00
38
37
07
3B
36
05
01
2A
27
10
31
36
09
07
2A
3D
35
11
3E
0E
03
0B
0C
15
2B
05
0E
36
17
10
2B
2A
16
14
27
01
2D
29
01
0E
11
10
3B
00
33
30
11
14
2B
39
06
36
0C
15
04
12
3F
09
0B
3B
07
2B
2F
32
0D
17
31
0D
37
00
3A
16
35
2A
38
0D
39
2D
0D
35
00
3F
37
2E
07
2F
08
12
36
31
36
17
3C
07
04
14
2C
0C
34
11
29
12
3B
09
3A
3F
2E
33
38
0C
36
08
33
34
03
3B
38
15
2B
0C
33
10
14
08
38
2B
16
2B
00
31
0D
3D
0A
3F
39
06
28
2E
3A
0A
2C
04
34
28
05
11
29
36
0A
14
05
00
35
2A
2B
3E
10
0C
36
2A
03
10
29
05
0C
36
17
12
03
34
3C
3E
08
29
3E
0E
00
12
3D
04
2A
05
0B
28
37
12
14
11
01
39
39
17
0B
39
15
28
09
11
33
30
08
3B
2F
3E
04
32
12
3B
39
3C
03
07
32
06
3B
32
28
34
3F
03
07
2E
3E
27
31
02
37
38
31
2D
13
17
0F
10
0C
00
37
0C
0D
3A
12
3A
06
2C
00
11
2B
3B
2F
03
03
38
2D
31
01
0C
01
35
2E
27
11
06
0A
38
27
0B
31
04
29
35
06
27
2F
13
2B
2B
35
14
3B
3A
05
2C
38
30
0E
3A
2C
2B
15
3A
3E
16
2F
3E
0F
3A
13
02
32
2B
00
07
15
09
00
31
03
14
2A
33
37
03
39
36
38
02
09
11
32
2D
3E
0D
2D
34
2D
2F
0D
06
31
02
0F
12
28
3F
04
09
2E
30
05
2F
30
3D
32
30
10
38
0B
0E
0A
0A
2F
15
16
3B
30
04
06
39
01
17
38
2D
28
2B
34
3C
0C
2C
06
3A
32
30
15
2E
09
38
14
06
33
01
35
03
3D
12
2B
0F
37
16
37
39
10
0A
31
10
3A
0E
01
3C
06
30
2D
2C
3A
02
01
3E
16
05
36
2A
0C
16
31
09
08
35
19
36
3D
39
07
2F
35
2F
2C
33
05
08
03
11
0C
0D
03
2D
2E
39
07
03
3D
08
3C
32
3B
13
37
11
39
2C
09
36
00
2C
00
2E
36
32
3C
39
16
16
2D
3D
3B
3D
13
30
3B
2F
29
0D
00
32
2E
2D
08
3D
3D
32
3B
38
09
0E
2F
31
33
08
11
07
0A
01
28
3B
3A
00
39
27
0B
08
07
07
09
2D
07
33
13
37
31
2F
01
17
38
0E
26
08
36
01
3A
3E
13
34
35
01
35
14
2A
14
0E
01
2E
2D
3E
17
28
3C
3A
05
3A
15
03
12
2F
00
2A
0E
29
18
15
37
0A
17
3D
2E
0B
38
08
03
13
05
09
35
0D
01
0F
3A
3A
36
3E
3B
15
0E
01
2C
32
13
3D
06
3A
08
3C
3B
3F
09
11
3B
04
18
37
00
38
11
3F
29
17
31
29
11
34
2E
14
0B
08
3E
11
29
36
06
38
36
2B
2E
0E
05
0C
2A
29
3B
17
12
3A
0C
39
36
3F
3C
11
32
09
29
2E
04
00
07
16
14
37
0D
29
14
00
13
29
38
3B
07
0F
09
38
32
15
17
2C
3B
01
3C
01
39
2C
2E
31
0A
27
37
03
0A
06
14
39
3A
2D
14
36
0C
07
2F
35
10
2B
30
33
0E
0B
04
10
30
05
13
39
04
16
14
2D
3D
08
2B
2E
14
3A
02
12
06
02
0A
2B
15
0D
10
0F
31
3D
0E
09
34
01
12
33
3D
0B
0C
30
0E
06
01
3B
38
3E
12
38
31
2A
07
0E
13
36
09
27
3A
0A
2F
35
15
30
3E
04
2E
2D
2C
3C
14
0E
16
2B
15
13
09
0C
10
2D
34
0D
2F
3D
10
3D
36
31
0E
13
02
38
0E
13
13
3A
2D
08
3E
01
17
16
2A
03
01
0E
3E
16
13
0C
12
09
04
01
3F
2C
0B
01
17
2E
0C
0D
15
16
34
2B
05
3C
16
38
30
16
34
29
3F
3C
33
2F
30
31
34
05
38
13
13
33
13
07
09
30
0F
0C
2F
34
31
05
12
0D
08
39
0A
06
10
06
3C
30
04
0B
3B
15
11
2E
13
3A
3C
03
2A
38
34
04
3F
12
01
3E
2D
01
11
11
03
3A
16
3A
32
35
07
2D
3B
15
0F
0F
12
16
0D
07
39
0E
3B
17
38
35
3A
03
2C
0E
2A
0D
01
07
0F
00
11
03
3D
01
02
0F
38
39
31
2E
28
36
2B
2C
11
08
02
3E
39
03
33
03
2A
01
07
0F
35
08
2B
2A
01
35
0F
14
37
37
0E
3B
14
34
0F
37
04
2E
28
2E
02
3D
02
07
0A
3B
27
0A
03
2F
2A
30
2D
2B
03
0B
34
11
08
32
15
10
29
11
10
2E
32
14
17
37
13
2B
2F
28
00
15
06
04
28
38
29
15
3C
35
2E
07
12
10
0E
12
2A
33
2A
16
2A
3D
0C
08
0C
00
05
00
37
16
36
2A
01
26
12
0B
06
0F
2D
2B
2A
05
04
3E
17
2D
2A
07
2B
0C
01
04
3A
2A
15
3D
04
30
31
3D
04
00
00
30
34
30
0D
01
08
2D
34
2E
11
04
03
37
0A
28
34
13
09
3A
0F
12
3F
0D
07
3F
13
06
32
33
02
33
3D
14
33
26
2B
2B
14
09
0A
31
14
3B
36
3F
29
34
33
2B
29
3C
0C
33
02
2B
36
3C
0E
14
3F
0C
39
3A
39
11
12
2C
39
39
3C
04
2F
26
11
37
16
34
27
04
2E
00
3B
29
34
3F
0A
02
3B
32
17
3C
16
35
33
34
30
2C
0B
35
37
38
38
0F
2D
3F
3F
31
29
0B
0C
3C
11
0D
14
3E
2A
08
32
13
37
3C
0F
01
02
2D
33
2B
0A
2C
3F
15
29
39
2F
2E
10
3B
2F
38
01
3E
05
34
2C
29
0C
3D
06
2C
33
38
03
0E
01
2B
06
0F
00
3F
2A
3B
3F
34
3D
2C
02
13
2B
2D
2D
12
11
2B
18
3B
39
12
32
30
35
02
00
08
33
15
17
0A
3C
0A
07
07
07
2F
0F
07
37
0D
05
0E
03
06
3F
38
30
3D
03
2D
3C
00
35
2E
29
28
06
10
16
0B
36
0C
12
03
0C
13
12
39
3B
06
03
14
30
3F
34
2F
37
3A
03
0C
12
3C
08
08
0A
32
29
05
18
14
14
14
30
0A
3B
36
33
2F
37
2D
08
35
3C
27
0C
3D
28
32
16
39
09
0B
03
30
34
3B
0E
30
34
2A
28
05
30
0A
12
0B
32
39
36
38
02
0C
18
2A
32
35
34
02
01
33
29
04
2F
31
34
2A
2E
31
37
2A
0A
2E
05
01
39
0A
10
39
17
29
2C
33
07
37
07
0B
12
30
3C
16
29
3F
3C
38
33
0A
32
36
32
03
07
28
30
0F
15
28
04
3F
14
0A
35
18
2E
2D
10
0D
3C
13
3A
3F
01
04
38
3B
0C
3A
2B
29
03
32
06
37
0D
03
33
04
37
15
32
34
05
2A
39
06
2F
37
3D
08
08
3A
3E
09
37
33
12
27
2B
08
16
2C
34
35
14
33
30
33
09
02
0F
31
34
37
37
2B
13
3F
16
27
2C
0B
35
3C
12
3A
00
27
14
14
02
29
31
05
2C
05
3F
12
34
2E
27
02
3A
3D
11
33
38
2E
37
0C
09
2A
0D
30
38
14
3A
04
08
2B
0A
26
13
2D
2B
29
06
14
00
0F
17
3B
05
3E
03
39
08
02
14
0E
0D
31
00
13
2E
39
12
04
3A
0D
06
08
0A
3F
00
3E
0C
32
0B
38
0D
05
2D
32
13
36
00
28
3B
2B
0A
2C
2A
3A
00
09
0F
01
35
0D
28
0D
03
0F
32
38
03
07
2F
0C
3F
2B
00
34
0E
11
08
33
33
0E
0C
16
29
35
3F
2B
39
08
34
04
30
38
09
04
0E
3C
0F
0A
13
0D
2D
04
10
15
2F
2A
0B
07
2D
27
17
3D
36
03
07
0A
09
12
2E
0E
07
2F
08
28
30
39
2C
06
2F
16
33
39
34
32
2D
0C
10
00
0B
2E
00
38
14
3C
34
36
03
2C
3E
18
34
3C
13
35
10
29
2B
07
07
08
35
0D
16
3A
34
38
33
30
30
31
31
3F
02
03
07
0D
29
34
3D
2A
01
38
3E
2A
3F
2D
27
0A
35
00
34
2E
0E
0D
3D
2E
01
01
2A
02
33
3B
32
33
2F
0C
35
00
13
00
2C
3B
2F
0F
3B
07
28
05
2E
29
0B
16
0E
05
2C
01
33
2A
0E
33
2F
0E
3F
0D
3C
29
2D
2B
17
0C
3E
3D
3D
15
07
34
17
2F
02
11
3C
12
2D
2A
16
38
00
0F
0B
0C
2E
3C
06
07
06
06
2F
13
14
3E
30
17
0F
02
32
29
2C
2A
39
2B
34
15
32
2B
2F
2C
0F
2D
00
36
0C
3B
06
01
37
29
04
2E
2C
0D
05
31
2D
07
35
06
02
0A
3C
37
38
3C
13
04
3D
35
11
32
01
0D
11
32
02
0A
37
32
11
15
07
17
08
10
0B
0D
38
38
01
29
35
28
29
15
3C
29
0A
36
07
35
2E
02
16
09
2F
2A
2A
0E
00
14
06
3E
2E
0C
15
39
2D
12
3F
11
11
08
15
16
05
07
3F
3F
0D
12
35
10
26
33
3C
04
3B
02
00
32
0E
2A
2E
38
33
02
09
13
14
3F
30
2D
15
04
04
2D
02
07
04
0C
02
11
01
3A
11
2E
06
0D
28
16
0B
39
0A
0A
37
13
3D
05
3E
0F
31
10
34
2E
34
10
00
37
03
08
38
30
2B
0A
3A
04
0D
12
12
38
07
29
00
0D
34
19
06
35
30
38
04
2D
03
32
08
02
2A
10
15
00
0B
12
13
38
32
28
2D
34
11
0A
2D
0F
15
02
00
0F
11
01
03
3F
0E
14
2E
38
06
01
03
0C
09
2B
3B
32
06
05
10
3C
3E
0E
38
2E
39
09
37
05
29
12
2E
2D
2C
2D
13
09
2C
37
12
3E
0A
38
07
2E
07
32
0A
33
3D
3C
3B
28
3F
14
2A
36
2E
34
0D
0B
0F
04
32
35
0B
2F
2B
36
00
04
3E
2E
36
29
0D
30
31
28
31
2C
13
3C
32
2E
10
3B
0A
36
09
06
34
34
3A
33
0E
2C
3E
3D
37
2D
33
14
39
00
2C
13
3A
14
19
19
3B
37
36
0B
29
2C
38
2A
30
07
00
0A
34
12
39
02
09
10
00
02
3D
0B
13
06
16
3E
27
12
35
04
29
14
2E
12
13
02
02
33
02
28
3C
3D
09
13
28
3B
2E
34
13
02
01
2A
3A
3B
35
34
06
04
28
04
39
36
09
10
28
0C
05
2A
2E
3F
10
2A
2D
08
2B
35
3C
0C
10
03
12
35
0F
2D
31
2D
2A
15
3C
0A
14
11
0F
31
13
3D
34
3E
0C
07
02
12
26
14
05
11
39
0A
35
32
04
36
37
31
30
36
38
2B
12
0C
3A
02
37
2D
09
08
30
18
3D
2B
33
39
30
33
29
33
01
38
2A
16
3C
12
10
0C
3F
38
36
2D
14
05
09
11
17
15
02
38
29
3E
2C
2D
12
12
3C
0B
28
02
36
2D
2B
12
2D
01
03
09
13
0D
0D
05
29
2D
09
26
32
11
06
0C
05
13
2E
0B
2E
2A
13
06
2B
05
39
16
3E
10
11
30
28
28
16
07
3A
0C
39
07
0F
07
04
35
0E
28
16
36
10
3D
0B
3F
34
0E
07
33
2B
3A
15
30
34
06
28
39
02
3D
13
36
2C
0B
14
03
16
0E
14
30
0C
2B
06
36
08
04
35
0B
12
06
2B
29
11
3A
3B
3B
15
00
2F
27
3C
11
07
10
2A
10
14
3D
09
2D
3D
07
13
3D
2A
09
38
0E
37
08
16
02
32
2C
2A
3C
28
3C
36
10
34
11
0C
28
31
00
35
2A
35
37
06
0D
07
00
12
3A
2D
12
2A
06
10
2F
3E
34
05
3C
3C
0C
11
31
11
36
13
14
0F
00
09
3B
00
2F
17
37
2C
08
3D
34
31
0D
0D
17
3C
26
10
34
2A
36
0E
08
30
13
31
0B
09
3F
2D
28
0B
0E
03
3C
30
06
2A
31
0B
31
3B
34
37
2F
0D
16
2F
2F
10
33
37
37
08
29
15
2D
36
15
30
04
0A
2A
08
13
27
11
2B
0C
30
16
3A
34
3B
2F
09
27
3C
31
29
3D
05
08
02
3C
32
39
29
30
13
12
2C
2A
13
2D
2D
34
35
3C
34
38
06
06
39
0B
32
39
30
0A
2D
08
07
13
30
14
3D
01
02
02
3F
0D
28
28
06
04
39
12
33
06
10
0F
38
35
0C
30
01
02
3A
08
29
3A
3F
04
27
38
2B
0A
0B
28
38
02
15
2F
3E
2A
02
13
16
02
3E
00
3D
3B
34
34
17
36
01
0C
01
16
27
3E
00
10
31
0D
3D
38
05
3F
35
32
31
16
3A
2A
2D
35
2F
32
3B
2D
07
33
3D
29
0F
16
31
0A
29
2D
3E
35
01
09
2B
34
32
0C
2E
37
00
37
39
0C
02
32
32
0D
0B
0D
34
2A
35
2E
00
12
16
3C
13
15
0B
36
2B
0F
2F
3F
04
15
04
0A
38
01
05
39
0F
0E
29
16
34
14
32
29
0A
3D
14
3A
11
0F
38
30
32
02
35
0B
3C
14
28
3A
07
12
2F
15
2C
3A
0B
10
2C
09
09
16
2C
2F
36
12
30
07
36
34
2B
0B
16
11
30
11
39
2C
13
14
16
39
16
14
0F
32
0A
05
0D
29
0F
30
39
0D
35
11
0F
02
15
34
02
3E
0F
17
3D
35
0F
04
2C
30
01
03
0F
3E
0D
0F
17
02
10
06
14
15
0F
3C
2D
06
34
2C
14
2A
10
12
0E
2C
34
3A
10
12
16
11
2E
33
0D
28
08
05
0A
13
02
2B
35
3E
00
14
06
14
36
0B
2A
0E
14
3F
3D
3B
33
09
3E
2A
34
0C
3F
3E
14
2F
0B
0F
05
10
3C
3D
07
36
0E
02
0E
3A
0B
36
36
05
2A
14
33
39
16
3D
29
3F
31
03
07
06
2E
2C
31
14
2F
3B
3D
05
35
0F
33
2F
3F
3F
3B
3C
3E
17
2C
07
3E
38
2E
39
3B
30
15
06
3C
37
18
28
2C
3C
10
3E
0E
2F
17
05
2D
38
0C
0D
2D
03
33
18
2B
39
07
11
07
14
33
2E
31
0F
3A
0C
17
07
2D
3D
12
36
0D
0C
0A
2E
0A
0E
2A
31
00
2D
35
12
31
14
31
14
0B
0D
32
2D
2F
32
3D
16
0E
02
0B
13
32
2E
2E
01
0D
29
36
0B
29
0B
03
09
16
10
0D
02
38
0D
07
3F
3C
34
3E
04
01
03
2C
06
10
30
31
2A
04
30
16
02
05
01
12
0F
38
3A
2D
2D
36
14
0C
37
03
08
3C
0F
2F
02
06
0F
09
3E
2B
10
29
29
08
0C
0F
02
3A
2D
12
12
01
05
0A
32
01
13
2D
28
0F
28
12
36
05
39
2A
3D
28
32
3D
00
07
09
07
0A
12
2E
33
38
08
3E
27
3B
33
2C
34
06
34
32
34
34
17
31
06
37
29
17
35
3D
07
09
3A
09
34
0E
0E
12
26
0D
30
00
3A
06
03
0D
30
00
34
2D
2E
3A
33
02
3F
16
07
09
2E
2F
3B
3F
0D
00
2B
0A
27
2D
38
2D
07
07
37
04
0B
11
35
00
2F
06
15
00
0C
37
0A
2D
00
10
3D
12
27
31
08
34
07
02
2E
0A
2B
05
2A
30
28
2F
37
02
2C
3E
31
31
35
37
14
10
32
27
09
28
04
2C
36
36
10
2C
15
0A
15
3F
3F
08
34
0C
35
00
05
2E
3E
37
2F
31
38
0E
11
2B
06
38
2E
27
34
36
3E
31
32
31
01
02
3E
3F
2D
0B
08
02
06
15
38
28
27
0D
2B
09
3A
2B
32
09
03
09
28
06
3D
09
02
3A
02
3D
04
3B
14
29
05
2B
06
07
05
2B
14
03
03
32
28
2D
17
2A
2A
2A
13
2E
36
10
0A
0F
3A
16
29
16
2D
17
0F
28
0A
12
08
05
30
03
2D
39
27
18
15
32
32
34
0C
12
39
10
0A
38
2E
0C
13
33
07
29
3A
0D
3B
09
0E
2C
10
02
0C
2B
37
2E
12
0D
02
0F
33
11
02
02
10
0A
11
32
11
10
30
03
2A
34
2F
03
39
33
3F
05
0A
01
12
35
0A
0F
27
27
3E
13
2F
09
3B
0D
03
37
06
38
17
05
06
09
05
00
3C
2C
13
2F
10
36
0B
3B
2C
3D
28
35
2B
30
33
3B
10
04
39
02
3E
00
2C
35
10
2F
07
00
0E
05
39
32
12
37
15
11
37
3E
0A
16
06
0F
2E
01
2F
0B
3D
0A
3D
03
33
12
16
07
04
33
01
2F
05
2B
08
3A
3E
02
3D
11
02
26
35
3F
0F
01
31
3B
00
17
08
0E
35
00
2D
3A
2A
07
37
10
12
02
0D
2B
32
18
33
2E
03
2D
39
14
00
0C
0F
07
31
31
3C
39
02
15
3E
04
04
0C
2F
34
0C
13
08
3F
3E
3C
0B
10
0E
11
3C
2A
36
3B
0F
37
38
07
38
12
3D
2C
3B
3F
0E
3D
28
32
2F
2F
04
12
3C
3B
0F
0D
13
0F
2C
00
28
0A
00
3A
11
14
10
2E
03
15
3A
3C
05
0E
0B
29
14
3D
12
10
0D
2D
18
08
32
33
02
0C
09
3A
2B
2E
2D
08
3B
34
13
3F
3A
30
37
37
3D
11
3B
27
18
2C
13
14
11
3E
2D
2D
0C
0A
33
31
38
06
35
32
0B
28
38
3D
2F
10
16
08
10
3F
11
06
33
2E
0B
03
04
28
16
34
0C
01
2B
34
3A
00
33
03
3A
07
3D
0D
35
3C
3F
13
2C
2D
36
33
3F
32
36
15
3E
30
04
0F
02
14
08
01
33
0B
3A
36
04
33
05
36
3C
0C
3E
36
37
32
15
12
0A
06
33
05
06
07
2F
0D
39
0A
17
01
34
37
06
0E
01
34
27
03
2F
30
34
2A
3F
16
3B
16
3F
0E
31
3E
36
00
0A
00
3C
30
07
0C
38
3D
2E
3C
02
13
2E
12
05
28
2A
31
06
3D
0C
31
12
09
28
2D
31
0D
3E
17
3A
38
2E
2F
3F
3D
34
0E
3F
2D
39
31
2B
2D
3D
3B
33
2F
38
02
0C
32
34
28
0F
2E
2B
00
2F
12
0C
3D
11
11
11
10
17
3B
0F
2B
14
13
2B
03
39
0D
3E
32
06
2C
30
08
32
2F
2B
0C
39
00
17
16
17
0B
2C
12
06
0B
38
3B
0B
0D
17
3C
17
33
02
14
3D
3C
33
38
3D
0B
2D
31
07
30
16
18
05
03
0E
3B
0C
13
2B
3E
10
03
10
12
38
2C
0B
29
2C
14
2C
13
07
09
38
38
08
01
2C
00
2E
01
01
2C
3F
37
2D
16
03
2B
39
3D
33
3C
3E
09
11
3A
2E
10
10
30
2F
07
2D
3C
01
15
08
05
0C
12
3D
28
3B
2A
0B
3C
13
15
3F
17
2A
0D
13
34
03
07
3B
29
2A
07
39
38
36
11
31
3A
2F
05
2C
39
0B
2F
28
3D
3D
33
31
03
35
27
0F
0A
34
2E
3B
2E
2D
3A
39
09
15
30
29
14
3C
36
0D
14
10
29
37
11
39
08
0C
00
30
2B
12
14
11
16
0F
39
0E
2E
37
17
32
3C
05
11
32
36
08
2E
2F
2B
29
3B
09
34
39
36
3C
33
2A
29
11
2F
04
32
32
3A
12
31
2F
2C
11
3A
01
05
11
38
3E
29
29
2C
08
06
01
07
35
04
0D
0D
12
38
30
0F
08
15
05
33
33
35
14
0D
13
11
2D
3A
2E
39
30
10
3B
32
06
3F
2B
11
07
13
2D
2A
36
03
38
31
04
04
38
28
3C
02
07
3B
3C
11
13
3F
2F
07
28
28
11
0A
32
39
06
30
35
38
15
07
3F
34
04
0E
04
09
35
0F
29
0A
2B
3F
2E
3C
3F
31
28
34
30
0E
3E
38
02
39
36
13
0B
2D
0C
00
3A
00
11
32
39
3D
2B
3B
29
3D
37
3D
3B
0E
30
35
32
05
0F
2A
12
3F
31
33
08
2F
0C
2B
2A
03
3D
0E
32
15
2C
2F
04
37
0E
37
13
39
32
06
02
32
07
33
3A
02
38
04
35
38
3C
05
12
0D
10
06
2E
0B
3E
37
04
07
14
0C
37
39
07
2E
2A
01
30
06
04
0A
39
28
29
06
2A
08
0D
08
0C
2E
2E
04
3A
30
35
29
00
17
16
05
31
01
10
04
31
01
09
04
33
02
0C
33
2D
0D
36
34
07
05
05
39
13
2A
0E
3F
14
0D
3E
3F
04
0D
2B
3F
30
38
3A
09
3A
2B
32
33
2E
02
10
0F
30
02
2B
0B
31
2E
2E
3C
02
37
0C
01
0D
3B
3E
15
2F
38
16
30
29
0D
17
0E
35
2A
39
00
3F
0E
02
3E
29
08
2B
3B
03
0B
2B
06
0D
37
0B
06
36
12
14
0A
34
07
33
29
12
34
15
07
12
06
35
0B
0D
2D
08
2E
3F
27
31
17
15
16
00
03
01
2F
13
39
37
3B
0F
02
35
0F
2C
3E
3E
16
38
28
27
3A
3D
33
27
07
3E
16
29
39
36
12
3F
28
3B
2E
07
04
00
3C
11
2C
02
10
01
00
3A
15
15
37
16
35
12
14
01
06
11
00
3C
15
2F
3E
06
3F
10
33
3F
12
2C
03
0D
0D
2C
0E
02
3B
3D
0E
11
17
09
08
05
12
11
27
14
3D
03
05
07
2E
2F
10
36
10
2A
04
3B
16
0F
2B
03
01
35
26
3D
3F
3D
04
02
02
07
29
14
14
28
12
05
35
13
08
10
2C
31
2D
34
32
04
2C
31
2C
3F
15
37
12
03
2B
30
2C
0D
3A
2A
36
14
05
31
3E
14
09
05
15
2A
2A
10
3E
12
2E
35
2D
0C
3F
3A
13
13
15
36
02
15
09
00
0C
2D
02
3E
35
04
09
28
06
3A
0A
12
3C
0F
35
09
3D
3B
2C
10
35
34
12
27
13
16
12
06
32
04
27
2B
0D
3D
3F
05
02
08
3F
2B
16
3F
2E
02
02
08
31
32
08
00
2C
18
2E
3F
0A
30
00
2E
2A
0E
29
0C
25
02
00
35
2D
0F
16
09
02
16
0F
15
13
05
33
0C
2B
0A
15
3B
33
01
2F
3F
2C
06
2F
30
0F
07
10
0A
02
3A
16
06
37
29
11
2F
01
03
16
12
0B
18
15
2C
05
30
12
3E
2A
35
05
0E
2E
3B
11
2A
3B
00
05
01
06
32
07
2C
3B
15
00
16
14
2A
06
13
04
39
3A
03
06
02
37
3A
37
3B
04
34
3D
27
0F
31
28
0E
3E
3C
10
33
13
08
32
15
3D
02
0C
35
3D
33
3B
17
0D
39
34
15
10
2A
3B
31
2B
35
0C
12
3A
3B
2F
12
3C
08
12
09
33
2B
38
0A
3B
08
3F
3D
05
2D
09
31
07
02
12
0B
14
3A
15
12
35
04
3F
3D
0F
2A
3C
2E
0B
05
0C
16
07
04
03
00
13
0F
0E
0B
0F
03
2F
3E
2D
0E
3E
00
3E
13
15
03
03
06
28
12
15
15
09
12
08
3A
32
09
07
39
3E
3D
39
3C
3C
0E
37
00
06
13
12
36
15
10
3D
09
27
2D
30
02
0F
28
29
15
08
12
37
34
3E
12
2D
3D
07
00
11
16
05
3D
04
3F
2B
10
2F
3D
13
00
0B
33
0F
05
00
2D
0D
2D
36
15
3A
2C
04
3E
0F
16
2A
38
14
13
32
15
38
3C
38
3D
16
35
2E
33
34
15
07
36
12
2C
38
09
00
38
01
10
04
05
34
3F
2A
39
10
2D
0F
28
3E
2D
3A
10
32
2C
2B
0D
3D
3A
3F
2F
0F
0A
18
14
12
3C
00
39
30
02
14
2C
11
0D
06
18
10
16
02
11
36
05
2D
3C
06
02
07
27
0B
07
05
00
14
04
3C
09
3F
2D
2D
01
01
01
14
37
34
0B
36
0D
0C
18
03
0F
3B
36
01
13
28
2D
0F
01
13
05
2A
29
0F
02
2D
30
0E
37
02
28
03
12
06
35
3F
3D
13
13
10
02
15
17
02
39
12
2A
2A
2C
00
06
36
15
3C
29
10
29
0E
2C
0D
11
37
3A
06
00
2B
3E
0D
07
02
0E
35
2C
3A
14
36
37
09
2B
03
15
0B
3D
03
08
36
3E
34
27
36
29
00
00
37
10
16
2E
34
28
3B
28
09
10
15
01
12
09
09
12
37
04
2B
37
0E
2F
3F
04
0A
0F
16
3C
36
39
31
0B
04
03
36
07
16
3F
0A
2C
2D
30
14
30
32
3E
0D
27
13
32
37
11
30
3D
29
2A
0E
14
13
08
0A
32
30
05
0F
2D
36
29
3B
06
16
33
05
0C
35
2C
2B
39
10
01
38
38
35
0A
3C
3F
10
00
03
13
0F
2B
0F
3B
09
10
2F
0E
30
3E
0F
3B
12
02
33
3C
13
11
2A
10
2F
3A
3C
16
30
39
07
3F
28
29
3C
15
3B
32
11
13
2E
09
15
38
3E
35
07
02
08
0F
0E
2E
39
32
2D
2E
0C
30
3F
3C
05
2D
39
2E
0D
04
06
2C
0D
35
02
00
3D
34
01
04
29
2C
2B
32
3A
30
3E
13
33
05
3B
30
39
27
2E
04
2F
34
3E
18
15
30
0A
13
34
29
29
15
37
16
3B
2F
36
10
37
0F
34
34
13
3B
0F
0E
35
03
08
2A
3E
28
29
07
36
32
3C
31
02
00
08
08
2A
28
3F
02
38
38
11
36
31
31
3C
05
30
38
3E
01
38
36
06
0F
36
13
0F
13
0B
2A
11
3F
16
10
3B
2D
2C
10
12
27
01
2C
34
0B
33
33
0A
2A
33
11
04
28
3F
0D
33
17
0B
3D
0B
0D
0E
08
0F
15
32
01
12
3E
04
30
0B
07
02
3A
0A
2F
16
0B
05
31
13
10
11
04
01
3D
31
28
0F
39
0F
0D
39
3F
28
39
39
05
2B
28
3E
04
3E
35
17
04
00
11
30
0B
3C
36
0B
00
12
2E
3B
3F
12
2D
36
2C
12
36
2D
3B
0E
2C
31
33
11
3A
09
32
39
35
00
13
11
0A
06
01
3D
36
0A
0C
14
3C
06
36
17
03
2F
2E
30
3D
0E
3F
03
0D
2A
15
32
33
05
38
2F
2A
0C
3B
29
31
3F
3A
31
35
0E
34
28
0D
3A
05
01
2A
28
0C
08
02
06
36
29
31
0F
04
2D
33
30
05
13
01
07
2C
34
3F
14
12
38
2C
2D
39
13
0B
38
3A
31
29
05
16
3E
15
33
16
01
0B
14
3A
0D
3F
0D
38
39
09
01
3E
10
04
13
09
0A
0F
27
38
3D
30
3E
3F
07
38
3E
3E
08
0A
38
05
0E
16
38
04
00
05
0F
30
10
2C
38
30
0D
0B
3A
07
16
15
10
10
29
28
12
12
07
0A
3E
3E
31
39
2A
09
36
33
11
06
28
35
15
3C
15
38
2C
3F
3A
17
38
2A
14
13
04
32
2A
07
0E
2C
14
01
0D
0A
16
07
0B
37
2A
3C
0C
08
2F
08
02
04
09
2D
34
12
2D
2E
10
32
0D
34
34
00
38
09
00
12
12
0D
30
04
0F
0F
10
3E
0A
36
2B
28
3D
0C
3E
12
2D
05
00
0B
07
07
13
3E
35
3B
33
0A
2B
0C
33
16
0C
0B
0B
0A
05
3A
08
13
2B
0E
29
32
08
13
01
2C
17
38
35
2B
11
2A
17
0D
13
09
32
38
32
31
0B
06
2E
0F
05
29
2B
3E
0C
2E
26
3E
03
13
05
3F
0A
14
10
07
09
30
06
0B
13
00
2A
3B
38
31
2B
2A
38
11
14
09
05
2F
36
02
3A
12
0F
01
08
0C
39
31
2B
2C
38
29
35
11
0F
30
0F
0B
0C
0E
39
28
14
29
14
34
2E
14
09
02
33
2C
08
02
3A
0D
06
0F
03
10
3F
2C
04
05
17
15
0D
14
2B
05
09
2C
09
3B
2F
2A
0A
02
35
3C
35
3A
11
0F
3A
15
05
0D
11
00
05
05
3C
2D
0A
3C
12
3F
05
29
39
35
00
2A
10
09
08
0E
00
07
02
28
04
3C
0B
07
01
17
34
0D
33
2C
0B
05
3D
33
2E
2D
34
15
0C
0E
00
0B
07
32
3E
10
3C
2F
13
3D
02
0A
17
0C
2F
2F
3D
2B
29
16
13
32
00
28
37
09
00
0E
12
08
3D
37
3D
36
3F
38
2E
07
3A
2A
04
2A
37
16
31
06
2F
34
11
3F
08
33
3A
09
31
36
18
07
00
0B
02
2D
2C
16
38
07
28
16
05
15
30
32
10
2E
3C
28
29
06
13
05
34
2F
0D
31
10
2D
00
12
30
15
0D
28
04
11
06
3D
09
0A
04
29
28
0D
0C
3F
17
16
36
2E
2E
36
12
3B
17
3D
15
0B
04
13
11
2D
11
10
2A
35
0E
39
2E
2A
08
37
11
08
26
0A
3F
2E
15
07
3C
34
09
10
15
0D
0B
37
0C
12
13
01
2D
3B
07
3B
38
28
0F
10
06
3A
32
0B
0B
32
2C
16
2E
0E
39
0B
0D
13
3E
07
02
2E
31
19
26
0B
07
35
05
30
07
3F
01
15
02
3C
30
2B
30
34
34
08
3A
0F
2E
3F
15
0D
2A
39
29
09
3C
05
36
17
08
2F
3E
2D
0D
3B
0D
0C
33
15
0E
32
08
05
36
39
2F
31
14
30
0C
15
0C
12
09
14
13
3E
0F
08
00
07
0A
2E
29
07
17
3D
3E
29
08
0D
11
17
34
00
14
11
0C
36
0C
08
04
09
3F
13
0A
12
29
00
36
37
32
05
2C
37
2B
06
09
0D
0B
07
04
2E
3F
14
07
39
3C
35
37
02
3C
09
29
0E
02
37
2D
13
2D
3C
0F
3A
10
3A
13
03
16
3C
03
38
0C
0B
00
13
14
2A
36
01
10
33
3D
14
3F
10
36
11
28
2A
3D
35
3A
10
2E
0D
28
14
10
2D
2F
2C
0C
08
35
28
0A
15
0D
3A
26
2A
04
31
07
37
37
04
09
35
04
0F
32
3C
08
0D
09
10
34
34
2D
30
3F
12
38
3B
01
39
32
30
2F
00
35
32
30
3B
2B
2B
05
15
36
15
34
12
17
2A
0D
14
34
27
2D
30
39
27
31
3C
13
0D
03
17
07
06
17
30
37
09
06
30
2A
35
0E
37
28
07
15
3F
15
08
3D
2E
2C
3D
10
04
32
0C
0D
16
2D
2A
30
17
3F
31
03
03
15
02
0C
37
2A
01
26
3E
30
37
39
10
16
01
29
33
0F
35
2F
3B
28
34
31
3B
2C
2F
08
2D
0F
3E
29
29
00
16
37
12
2E
08
36
16
08
32
06
15
16
0A
0A
2E
3B
0D
2C
07
3A
2F
3B
34
0F
10
0E
0A
12
12
00
05
15
30
30
2D
00
10
28
3A
39
0A
3F
10
3C
3B
2A
3C
08
3B
02
31
37
36
32
0E
0E
04
05
15
27
08
2E
02
12
0E
07
07
09
35
02
3A
32
0C
18
29
0C
0C
0C
11
31
27
3A
13
0C
29
33
15
29
3A
30
2B
3C
07
3E
14
3D
09
16
28
30
08
0C
3D
2E
0B
2B
0C
39
29
30
09
28
3D
05
29
37
37
3E
0F
29
11
39
2F
08
0F
2C
08
00
10
00
13
3A
30
0D
29
17
0D
0B
0E
36
3A
0E
2E
0C
2A
04
2E
0E
34
07
01
02
3A
0C
2D
38
3B
2A
3C
2A
02
3F
3C
3E
37
2D
0F
32
2B
3F
14
0C
11
39
3D
31
27
02
36
3C
0C
09
10
39
2A
3A
12
35
30
3C
3B
0E
34
36
10
3D
2B
02
3C
0D
02
0A
31
2A
32
32
11
10
07
12
2E
2C
04
0E
0F
2E
08
3E
3E
35
37
17
16
0E
31
0B
3F
10
32
05
3E
3B
03
36
06
2E
35
3F
29
35
03
16
07
3A
12
34
2B
2D
10
2B
10
0C
31
35
35
12
2A
3D
26
29
30
08
15
10
0B
0B
09
11
00
2C
37
34
2A
2A
35
10
0C
11
3E
2A
2A
32
34
36
3A
0E
32
02
37
36
2C
0C
2C
13
12
14
0E
3E
29
15
0A
39
2D
05
06
2E
30
12
15
05
2F
0E
02
0D
32
0C
2B
2E
35
08
0D
09
31
26
0A
2F
2C
12
0F
11
38
3A
03
3D
2D
38
05
35
3D
38
0D
36
36
33
0C
04
2C
2D
04
0A
01
01
33
07
3C
29
33
26
33
28
28
37
0C
34
05
16
04
06
0F
11
00
3C
13
0E
10
11
04
0E
00
17
34
18
14
08
02
08
03
37
0D
15
31
2D
14
0C
17
05
07
3E
0A
33
15
08
00
2F
0F
12
2C
39
2E
3A
2D
30
3B
02
39
11
3E
03
0A
32
2E
33
32
36
39
35
01
0A
07
05
02
0F
03
2D
37
33
05
3A
3C
00
0A
07
09
36
2D
3C
2B
3F
09
15
0E
39
38
0C
30
32
3D
05
30
02
3F
31
01
2D
34
0F
32
30
0E
07
0F
14
33
33
35
11
05
38
0F
3E
04
15
0E
2A
14
38
35
29
30
2A
13
2B
0F
0B
2A
33
12
2E
28
3E
03
03
34
31
16
32
3C
05
2F
07
0C
0D
29
3E
37
05
06
33
3B
2E
30
05
14
0C
2E
39
3C
00
33
3C
34
0E
01
3F
00
28
2C
14
2D
34
03
10
04
3D
31
2F
37
2E
09
37
34
01
17
3C
32
16
15
33
28
0D
3A
37
32
15
32
01
3D
07
03
13
37
35
30
07
09
00
39
06
0C
26
37
06
32
37
10
38
35
31
2D
30
04
0E
14
29
2C
32
3D
12
11
0A
00
0C
0D
17
37
32
0A
2A
00
07
3F
17
0D
27
33
3A
3A
2E
05
13
10
3F
3D
0F
13
17
17
3D
00
00
32
06
11
29
2C
34
08
04
08
39
30
32
09
3A
0E
08
2A
3A
0F
2B
37
36
0B
29
39
36
0A
0D
3D
27
01
08
3E
38
2B
07
3C
15
37
29
0F
34
05
2D
37
0A
35
39
0F
0A
11
12
2D
10
36
2E
12
28
15
16
38
30
2A
09
3E
13
0A
04
31
05
13
09
0A
3D
37
39
37
0E
32
29
2D
08
3E
07
12
3F
00
37
0E
0E
03
39
36
33
3B
0E
38
19
30
3C
2A
2F
30
0D
32
2F
2F
0D
3D
3E
2E
05
16
08
34
15
2A
0D
16
2A
0E
06
29
12
3C
3A
06
0B
34
0C
3B
2B
34
0C
2A
10
33
3F
11
39
0F
2E
10
3D
29
10
37
00
31
2C
36
38
32
15
10
0C
32
32
31
0E
3B
0C
0D
07
2A
15
3E
14
39
01
08
3D
0F
2B
27
03
2D
0D
0A
3B
17
0B
2A
00
00
15
0D
00
08
34
2A
12
3B
31
30
37
0D
38
07
2E
37
3C
3C
33
06
08
13
34
2E
09
34
00
04
30
11
3C
0C
32
39
0B
38
35
2F
2E
33
05
06
3D
3D
3D
07
36
29
35
02
05
33
07
04
05
3E
2F
3C
06
10
13
17
2F
2F
31
11
16
2A
3B
3B
3A
31
34
2B
14
16
06
3B
3A
29
30
14
03
2E
2F
00
06
16
2B
02
2E
0B
02
34
3C
07
02
0D
31
2B
37
10
09
05
11
02
36
34
07
07
36
13
36
0D
30
09
31
3A
15
36
0C
04
29
36
0B
0F
07
2A
15
10
34
2E
03
12
15
02
33
00
2A
0A
0A
3B
30
2B
34
11
38
3A
3A
00
3B
3B
0A
09
06
38
11
34
12
10
3F
12
35
35
32
0D
31
0B
02
09
17
13
32
2E
15
05
0F
09
3E
01
0A
0E
02
3D
07
03
13
0E
14
00
2D
34
2F
3F
03
12
2F
07
2B
2A
2C
04
12
39
3C
08
0C
34
32
0B
33
04
37
0D
10
13
3D
09
34
2D
04
38
29
0A
00
34
3B
13
3A
03
2A
00
3A
2C
2F
0E
17
38
3D
3F
02
2A
07
3E
33
03
26
30
29
01
35
07
14
33
2D
3E
36
13
15
2E
02
13
0B
37
13
3B
11
37
02
11
2F
2F
3C
0C
07
39
3B
38
3C
33
3E
2D
33
33
32
2A
2C
07
06
10
35
3A
28
10
06
2A
34
0C
33
10
2E
3F
08
09
04
3C
28
06
06
34
07
11
39
36
02
06
0C
3C
29
03
15
37
10
0E
2A
0D
32
30
3E
0D
07
39
36
31
31
34
38
28
03
35
0D
03
3F
05
38
08
3F
2C
3F
08
2B
12
09
0A
0E
07
38
37
14
0B
29
0E
05
3F
34
37
2C
06
0B
2F
0C
2E
2E
11
05
2E
3D
37
08
01
04
16
01
09
3D
33
35
10
0C
32
03
2B
0B
0A
38
03
09
07
01
33
32
29
2E
3F
27
35
37
28
3E
12
02
2E
33
29
00
14
33
0C
03
2A
29
29
3B
06
2B
14
05
28
0F
39
31
03
38
17
08
31
0E
0D
2D
2E
0A
3E
07
04
2E
2A
2E
2B
0D
08
2B
0A
08
06
27
35
35
01
04
35
3D
03
16
00
35
3B
15
12
2E
33
2F
07
0B
2A
3F
05
2B
0B
0D
09
2C
06
16
03
2A
03
37
12
12
01
0A
31
0D
2F
29
06
15
04
0D
10
32
0A
3A
0D
02
39
3A
03
0E
0D
09
02
08
0A
0E
32
06
2B
3B
34
36
34
2F
13
2B
39
31
3B
07
30
31
05
29
11
11
05
0A
16
06
16
31
3E
13
3D
04
15
30
03
0B
2A
10
3F
0A
04
3F
0F
04
03
12
04
01
39
30
03
37
03
35
31
0F
0C
0F
28
03
33
03
30
09
3D
0D
36
2E
0C
34
30
27
3A
3D
0D
02
3D
0D
14
11
31
01
18
0A
0F
38
36
2D
05
17
0E
05
02
09
38
37
33
06
31
0B
38
07
02
34
00
30
09
08
0B
37
36
2D
08
01
02
3B
06
3C
3E
31
3F
12
32
35
31
2D
0F
12
2C
00
3B
28
3A
33
0C
07
3E
34
10
38
2D
2F
0B
16
01
35
37
39
3E
03
2A
29
04
0E
39
2D
0A
39
3E
28
3D
36
03
14
15
0F
0E
08
38
18
38
08
11
37
12
0F
2D
09
0C
07
09
10
14
15
3C
3E
3E
17
30
29
35
2B
11
31
2A
3B
11
33
3F
36
3B
2B
09
2C
10
00
35
04
0B
33
3C
3C
3A
01
08
32
00
32
16
16
37
0C
3A
08
2C
06
2D
07
04
03
08
13
0E
17
18
2F
11
2D
32
34
2F
0A
08
2A
04
01
3E
07
38
09
33
0B
15
30
3B
09
28
17
34
05
38
11
38
03
31
36
37
2A
12
16
32
16
0E
33
0D
11
07
0A
06
3C
30
14
0E
28
0E
00
30
10
28
2B
0F
3E
33
3F
2C
2A
0B
33
37
34
0F
13
0C
16
06
10
38
3A
3A
12
17
0A
07
02
01
05
01
2E
3F
27
00
32
39
0C
3D
13
38
09
39
3D
06
36
11
04
07
05
0F
38
3C
10
29
3A
2F
2C
06
37
3A
3E
10
30
2A
10
04
17
0F
04
02
3B
3B
3D
0B
3E
33
09
05
11
3D
0B
3E
32
32
3B
03
31
05
3B
3A
16
0A
29
0B
0B
07
07
39
10
30
05
37
38
34
31
3A
27
09
11
2D
18
2E
14
3F
36
02
31
00
09
05
38
0E
0F
06
32
3C
3C
08
01
14
03
0F
39
15
06
2E
2F
36
08
13
15
2F
01
10
3C
2E
08
2B
33
29
04
38
14
3B
14
09
2E
3E
3F
3D
37
09
34
0D
31
02
0E
0B
0C
29
35
0F
0B
2A
06
0F
16
05
06
36
3B
11
30
05
03
01
2C
03
05
3B
11
28
01
0B
3D
30
0A
2C
3B
30
13
32
16
37
10
3B
35
36
14
07
3B
12
2A
39
31
15
2F
2A
04
16
3A
05
0A
0A
00
07
07
3E
08
0D
34
3B
2A
2A
04
3C
24
34
3E
27
11
07
0E
28
37
00
0E
01
3C
2D
3A
19
2B
07
2D
2C
35
27
2B
13
2A
38
11
13
01
2B
12
0D
14
37
08
2B
30
2C
2E
12
35
2D
10
2C
13
39
13
30
3B
3C
0D
3D
28
07
0F
28
3E
34
11
0B
02
0F
06
2B
38
0F
10
33
08
13
10
31
0D
28
0F
0F
09
34
0F
0B
06
12
38
2D
30
01
11
11
12
15
39
11
13
05
15
02
31
35
3A
2D
2A
29
33
37
3B
0B
32
37
32
28
04
38
36
2B
05
34
2D
2C
17
10
38
04
27
34
34
3E
13
39
2D
31
37
3E
32
3D
03
3E
0F
28
00
2E
17
06
35
0C
0E
3A
30
09
05
04
0C
2F
37
32
0F
34
12
3A
09
31
06
02
34
03
39
08
3F
38
06
38
09
36
0D
01
2A
2B
2F
30
0B
0A
15
0B
3A
3F
00
35
3E
14
08
3E
04
0E
01
11
3B
31
03
0C
2A
32
14
12
2F
36
04
29
29
3D
34
03
30
32
09
29
03
3C
2C
06
0C
2C
32
02
3A
02
14
05
33
2D
38
34
2F
11
2C
27
2E
18
0A
0D
0B
30
0F
2C
28
29
32
2A
07
11
16
10
08
13
3D
30
33
31
07
3C
32
06
30
2D
09
2A
28
29
00
07
0F
06
2B
2E
13
0F
06
0E
3A
0A
09
06
03
15
13
16
01
08
12
2C
08
16
3A
32
12
0D
28
32
0E
0A
36
03
06
08
2B
30
08
36
07
3A
39
0D
29
10
05
37
3D
0E
03
2C
08
0D
36
2E
29
32
12
31
2E
3C
0C
15
08
2A
05
3D
08
10
35
27
3C
03
0D
37
04
37
3D
2E
04
28
33
3A
08
3C
0A
10
00
0E
2A
0E
2F
01
11
0D
3B
3D
2A
15
2E
12
06
0A
30
09
14
11
14
3F
32
14
01
04
15
36
3E
13
38
2B
17
34
0A
08
3C
34
15
37
03
16
36
2F
37
3E
28
0E
0A
38
3C
3A
16
38
07
3E
3E
2F
3D
26
07
0E
16
30
3E
03
08
28
2F
36
33
34
01
2E
0A
3C
3E
16
3F
05
39
03
39
04
3D
35
32
2B
3A
09
02
2F
2E
10
00
2D
1A
39
07
09
19
00
30
34
06
0A
3C
15
39
07
3F
09
07
38
32
3E
38
14
38
06
3A
07
06
0E
16
0F
37
18
2F
3A
00
10
0C
0A
36
3F
0C
3E
27
3A
13
3F
2C
38
30
06
05
28
15
11
3B
2F
30
0D
00
37
3E
31
17
10
14
01
3B
06
34
3D
37
0B
39
2F
3E
11
00
3E
0D
3C
14
07
3E
0C
0C
34
33
29
0A
31
02
15
01
0D
0C
0D
3C
0B
0B
3C
09
05
2F
27
0D
0C
39
37
02
05
0F
0D
04
2E
2A
28
13
03
3E
2A
16
3D
2D
10
02
11
17
39
2F
3E
03
0B
34
11
36
15
02
02
02
14
31
12
06
01
0F
08
13
15
09
14
0F
09
03
07
3F
27
3F
15
3F
29
37
2E
2A
32
26
08
0F
3A
0B
18
3D
3D
2D
10
0B
31
16
03
14
2F
31
34
35
0E
3D
28
2B
30
10
2D
39
0D
0D
0D
14
00
0C
17
00
17
06
37
10
08
14
0D
38
2E
2A
3A
27
39
08
2B
3F
0D
11
12
33
01
2D
03
28
17
12
01
3E
10
00
3D
0A
07
04
3F
02
03
09
28
15
28
2D
10
05
0E
3C
36
2A
3F
2F
3F
12
28
30
30
34
16
13
35
2B
31
13
37
31
14
35
2C
36
11
2E
15
31
13
09
10
11
06
07
37
12
33
34
14
06
0D
18
17
31
3D
0E
3C
0B
04
04
0E
3E
07
38
06
09
17
00
37
36
0D
12
06
36
07
12
28
3B
13
0A
14
00
11
10
2B
15
2F
2A
09
0E
30
04
10
04
04
31
2B
0B
36
0A
2D
3C
0A
02
29
11
2B
09
3A
28
2F
3E
06
2F
03
07
2B
13
03
29
0C
37
00
27
09
01
32
13
30
28
3C
0F
31
3A
38
14
2D
2A
3B
3B
2D
32
2E
2D
00
0B
0F
03
2D
2D
33
04
33
15
3F
11
07
3D
02
34
2E
06
15
06
33
0D
33
0D
2E
2A
0C
0F
0B
0C
2B
15
3D
35
0E
30
33
3B
3C
39
37
02
3F
34
2C
08
38
27
0F
06
03
2B
3D
17
13
2E
2A
14
08
32
2E
00
3E
0E
00
04
32
36
15
36
28
37
35
30
33
2E
31
2A
36
09
16
2A
3A
16
02
37
12
17
0A
2E
0D
15
06
14
0A
3F
2D
09
12
17
03
32
2D
02
10
34
36
03
02
2F
01
02
0A
01
04
09
3D
3B
0B
31
36
06
3E
35
2E
2F
10
00
04
14
2C
3C
03
2C
0B
09
37
32
16
11
3E
0B
01
34
2F
34
3C
0D
2E
33
2D
01
07
37
2B
2E
2D
30
37
3E
2E
3F
2B
38
38
0A
2D
03
35
3F
35
03
0F
0F
16
08
18
10
0C
08
14
15
33
34
04
10
15
30
30
3C
32
3B
02
2E
38
2D
0D
02
0F
08
2E
14
37
15
29
31
31
09
12
3E
06
01
0E
11
11
14
0A
3B
00
12
16
33
13
30
3B
2D
3A
12
2B
31
36
28
32
31
30
05
06
2D
3D
10
09
03
0B
15
0A
39
3C
2D
31
39
0C
09
11
08
09
3C
3F
29
3E
11
34
3E
2B
2A
00
31
10
14
3C
10
3D
11
13
35
07
15
10
3F
31
2A
34
3C
38
09
13
12
28
07
2E
33
36
09
2F
07
14
32
3D
10
03
35
2E
06
10
03
17
02
37
30
3A
2F
0F
01
17
3C
07
07
0E
15
31
32
29
3E
03
02
34
00
04
16
08
2B
09
3C
32
2C
06
07
35
29
33
14
38
11
16
3D
35
09
13
29
17
39
27
34
0C
0D
14
36
13
30
08
2F
2B
28
10
2A
13
3D
09
00
3A
00
04
2B
2B
2D
2F
2D
11
09
3B
0A
38
37
02
05
06
33
06
0A
3C
0F
0F
34
10
03
10
0E
12
0C
3B
36
32
04
29
30
2B
17
0D
06
3C
03
0E
30
03
14
0B
33
2A
2F
35
2B
02
09
13
0A
14
09
29
27
3B
04
2D
01
3D
3C
2B
3D
33
13
35
13
00
32
29
2E
3A
29
35
27
3B
15
33
14
2F
15
34
2D
2A
2D
12
13
37
12
34
3B
0E
10
0D
07
34
02
38
3A
15
03
3B
2C
3A
14
0A
0C
34
15
30
3F
31
3D
08
3C
16
0D
3D
36
28
14
09
37
2F
14
32
13
3A
37
35
2F
2B
3E
0A
3B
0B
2F
15
2F
36
07
30
39
0F
0F
32
0B
3E
38
2D
2A
17
37
3B
38
2D
11
39
33
00
0D
28
33
01
3C
2F
09
15
2A
02
17
2F
29
31
0F
2A
0E
0F
0A
15
3C
13
07
3B
35
0C
06
3E
16
03
04
2B
38
13
3C
3C
2D
38
3B
0A
08
14
3E
15
07
00
02
3D
13
3A
00
04
15
06
38
14
0A
0E
00
0B
14
3E
12
15
0A
14
2E
0B
0E
3E
3A
04
04
3F
00
34
34
3C
38
2F
31
2E
3C
32
28
32
0C
0E
2D
3C
2D
19
34
34
06
0F
3E
31
31
2D
0C
2D
3B
01
33
2C
39
3B
14
29
11
36
2C
0E
3F
38
2C
16
30
38
3F
3F
0B
3D
0E
14
35
2C
0F
0E
16
28
35
30
2C
14
05
05
14
39
0F
31
29
08
28
05
14
2D
03
37
33
30
0B
0C
09
2B
06
35
31
33
0A
3F
0E
0F
02
2D
33
17
08
3A
14
16
3A
05
10
13
09
32
15
3F
16
13
13
13
2F
10
36
36
28
3D
29
29
00
2E
3E
04
39
32
36
02
2C
28
37
32
09
00
09
19
35
39
12
04
37
36
00
0D
13
3C
26
19
05
3F
02
15
2F
34
2F
2B
0A
0A
03
15
0C
04
09
0D
3F
01
32
0A
32
15
05
3F
39
09
11
03
09
01
2E
31
34
36
30
35
2D
02
02
3B
33
2F
29
35
38
27
09
09
30
02
35
16
06
2F
3C
27
0B
33
0B
01
39
08
02
35
03
14
3C
2A
3D
08
13
35
2B
0B
06
0D
01
06
10
2D
06
01
30
0D
31
06
04
3B
31
14
3C
3E
34
17
28
3D
15
33
02
35
33
0C
2B
36
0E
06
0E
2E
08
0B
32
3F
0C
35
13
18
2D
35
2B
2D
3E
01
31
2D
01
37
3A
33
2C
08
01
16
3E
3B
04
39
0B
08
0E
13
12
2B
03
3B
30
37
0B
08
32
05
2F
13
11
08
3B
2D
37
3B
3F
3E
14
29
09
12
00
3A
2C
0B
3A
34
08
00
0C
3E
3B
15
0D
2E
2C
37
3C
13
3F
3E
3F
2D
06
35
15
07
06
2D
38
2F
3E
04
0A
38
35
30
2A
30
08
33
2C
39
07
33
0C
17
04
06
33
29
08
13
02
11
11
3B
39
3F
06
0E
3A
15
37
15
28
15
15
10
3A
28
28
33
04
3F
0E
05
14
0F
14
0F
12
0A
37
2C
0A
05
35
28
3E
36
2D
0B
3F
0E
0A
16
2F
3E
2D
2E
13
0C
08
3E
03
2C
03
0E
37
39
30
31
36
33
03
30
13
3E
29
0E
0E
3B
32
01
37
0A
35
09
13
00
03
0F
28
34
3D
09
2E
13
39
29
12
27
06
0C
06
11
3D
0A
31
08
3F
31
13
11
30
12
39
0B
02
0F
11
08
13
0F
13
2B
0E
0B
12
33
31
00
0C
28
3B
29
32
01
2C
0C
34
03
08
3F
38
29
2A
02
3F
10
2E
28
00
01
03
2E
32
3F
14
2F
3F
10
2E
11
00
2C
34
15
05
3B
28
04
34
3B
2B
2F
37
14
34
0F
35
14
3B
32
07
3B
3F
2B
3A
0B
09
37
3F
37
3F
0C
05
2C
3B
02
02
0B
31
35
39
0B
0C
33
02
07
2D
2E
13
2A
07
33
01
29
01
2F
37
01
30
3F
11
07
2D
29
3E
37
3A
0B
2B
07
2D
05
33
0E
05
09
31
12
34
2F
2B
32
05
14
04
2B
30
16
2B
13
34
0F
37
0E
0E
0F
36
16
14
2F
07
00
18
26
2C
2B
18
3D
05
28
04
30
0F
3A
0B
0D
3B
33
03
3A
2D
29
0D
0C
29
03
10
14
33
26
16
32
3D
32
11
08
3A
0B
26
12
28
2C
11
10
04
2F
37
05
37
09
2D
14
17
2A
0B
12
16
12
02
06
2F
2F
32
3C
17
28
05
14
03
02
2E
0A
2F
0C
03
3F
09
2D
37
34
17
12
37
37
0B
2A
2F
05
37
3F
06
2C
07
2C
07
3C
0E
34
06
2E
0A
0C
2C
31
2A
2B
2D
0D
00
04
2E
09
0A
01
3F
07
2D
3B
00
3E
14
2D
2F
02
16
3B
05
00
2F
10
34
2E
33
15
25
04
37
05
13
36
10
0D
0C
3B
28
0C
01
13
07
2C
3C
3A
3F
0A
32
0B
0E
09
15
03
2F
12
3E
10
39
39
0D
06
17
29
2F
0B
0A
31
11
0B
10
3F
10
0B
3C
14
0C
3D
12
28
33
3E
0E
0C
3A
0D
0E
3C
36
2B
3B
2D
3E
0D
31
2E
2A
2E
34
10
0A
07
0B
30
38
0C
03
0E
39
09
08
0C
33
3D
03
37
3C
08
06
06
00
3E
2A
05
29
39
2A
32
26
37
06
34
15
0A
30
2C
14
38
12
05
30
29
3E
12
32
3D
0F
03
0A
03
3E
3E
2A
0F
33
00
03
3C
3B
32
10
01
00
11
0E
16
14
2E
0A
04
0C
35
0F
11
0A
2F
37
05
07
29
36
10
3B
2C
12
0A
28
2A
0A
29
0F
08
0F
17
34
0B
36
10
3C
3E
05
2E
11
0E
09
0E
2E
2D
2A
12
13
09
3E
38
2C
3D
11
27
3F
2C
2D
3D
10
35
36
29
0B
39
31
39
08
36
3C
3B
06
31
14
0E
3D
35
3C
27
2F
06
0D
2D
08
05
08
17
34
01
0B
14
2D
3C
29
0A
34
37
05
35
31
3F
13
06
33
34
0C
38
04
01
0D
34
38
0F
37
13
2D
28
09
02
3E
27
3E
09
12
30
34
0A
0A
09
11
31
15
3A
2E
04
3E
2F
2E
2E
3D
0D
02
0B
05
07
3C
07
16
17
05
32
07
17
0F
2B
30
35
29
17
02
05
2E
2B
17
38
36
31
2F
12
3C
0E
29
38
07
30
02
0C
02
07
07
09
08
27
2F
0A
29
33
32
3F
00
31
16
12
12
37
01
02
32
32
2F
10
0D
3C
12
3A
2F
08
0F
0F
2E
3B
3B
0B
00
39
3E
16
26
3C
08
0B
27
3D
39
14
2E
0B
16
0A
08
2B
3F
10
04
3B
38
01
09
3A
2E
3F
3E
08
2F
2F
00
3E
2B
01
14
16
2A
35
28
06
0F
36
33
2B
36
3D
2C
2B
33
2E
2D
17
04
39
06
11
38
2E
2E
12
0D
33
3C
35
13
28
28
2C
0D
29
09
08
14
0A
32
15
33
17
0D
37
33
11
3B
2D
0D
09
0F
35
0C
01
05
3D
0B
36
2F
37
27
05
06
14
3E
39
15
08
0D
00
02
29
2D
0A
17
3B
2B
3D
0F
30
15
0A
3C
14
05
09
0B
0B
32
3E
0E
35
28
3B
3F
16
34
00
0A
36
3D
34
27
15
0C
06
0F
07
39
13
34
3F
28
05
04
39
3F
2F
06
3E
28
10
16
07
0E
2D
2B
03
11
2C
0C
15
16
0E
09
17
0C
0E
12
02
34
37
13
00
35
3F
01
0F
3F
0C
35
03
3F
37
38
0D
30
39
2C
06
32
16
36
33
0A
11
01
0F
10
08
2C
2E
07
2A
16
2B
3A
15
32
3E
11
28
3C
2D
3D
08
07
33
36
06
03
2D
3C
0E
2F
3F
34
0B
11
10
35
0E
11
14
04
08
08
3D
3C
0E
10
16
2E
11
38
2F
08
33
05
0D
3F
37
06
07
09
13
10
29
3E
36
12
3F
0F
39
0D
3B
34
3A
2B
32
26
11
09
05
04
3C
0C
03
3D
01
07
03
05
10
17
31
09
0F
14
14
13
30
2B
06
09
2B
06
2A
03
14
12
07
0E
2B
28
2B
0C
38
30
35
2C
0A
37
01
2B
0D
2C
01
3E
31
02
12
3E
2C
07
17
0E
2B
3B
07
15
0E
08
18
14
30
33
2E
35
0B
32
33
06
2C
29
2C
2C
03
06
3F
10
0E
08
00
04
0E
2F
39
02
37
09
2D
28
01
10
39
38
03
30
16
07
0A
3B
15
02
01
14
2E
2A
3E
30
32
39
13
38
3A
14
10
2F
05
31
09
31
31
06
3D
36
2F
13
38
00
18
36
28
05
17
15
02
16
0D
3B
3B
36
33
13
2D
31
2D
03
3F
01
06
28
29
38
3B
12
3D
0F
3D
15
15
32
03
2A
31
01
2F
08
01
00
05
12
39
3E
0D
0F
3E
07
0A
37
00
11
01
2D
32
36
11
10
28
15
34
0C
0E
0B
36
33
0A
11
34
39
0B
3A
04
11
28
05
39
2C
02
2A
17
0E
0D
13
02
08
2D
3E
33
3A
08
36
2E
04
13
01
01
35
09
02
12
37
33
35
03
2D
16
26
2E
07
0F
2B
00
36
01
34
04
13
2F
2C
0C
00
3D
31
3C
10
0B
2F
0D
01
15
0A
35
15
0E
2E
3E
07
13
12
2B
31
16
31
15
28
13
03
01
0E
00
04
32
3D
36
0D
3B
0F
15
28
29
11
38
28
05
00
29
03
18
15
30
12
0E
2A
38
13
14
38
33
33
2A
12
13
0E
36
30
06
06
03
2B
34
33
2F
3B
12
35
30
0A
28
0E
27
2F
30
28
05
2B
2F
2E
3B
08
30
09
2D
38
16
13
04
3E
35
2E
11
00
2B
2F
35
01
07
13
08
16
32
03
30
09
37
35
01
38
38
2A
17
32
3B
3B
14
2B
28
01
09
0E
03
2C
36
32
0E
2A
32
05
16
34
0A
06
16
30
35
27
28
11
0F
36
39
33
36
02
19
39
2C
37
0B
0B
3E
2E
15
2D
02
0D
0A
07
2E
14
3A
3B
0F
36
29
3A
35
03
0A
37
16
2E
30
0F
07
10
3D
00
03
05
11
3E
09
01
2B
10
39
0B
0E
12
36
11
01
0A
09
0D
3C
0D
15
3C
0E
0D
36
02
0D
28
35
0A
16
04
11
0D
39
13
3C
13
0F
13
07
10
36
0A
08
32
0D
33
15
07
3E
0C
09
0B
00
03
06
33
10
02
0A
08
09
28
39
0A
2E
04
33
37
2A
37
2A
03
32
28
01
01
2F
15
32
0C
35
0D
2D
05
28
33
08
06
2F
2C
39
04
00
13
32
38
13
03
0F
33
3F
2C
05
35
33
15
34
3E
0A
0F
07
2E
33
12
38
08
35
2C
32
08
34
37
16
10
14
04
0B
0D
35
17
37
2C
3F
17
17
30
2C
38
3E
08
00
2E
14
13
0B
09
16
0D
10
00
03
04
34
08
2A
3F
0A
12
30
33
11
0B
13
02
07
3D
03
38
3A
2A
14
29
0B
12
3F
06
2C
2E
17
0E
37
2E
0D
28
27
29
32
11
3A
0A
0C
03
34
17
11
30
33
35
12
03
32
0C
3B
37
3B
0B
35
2E
04
0C
0E
3C
2D
17
0B
01
0F
3F
30
15
3B
0B
02
3E
30
0C
33
3D
2D
35
32
0E
07
2E
32
3E
2A
0E
10
3A
12
02
03
02
0B
06
3A
05
29
04
12
38
3C
0D
16
0D
3E
06
30
05
11
05
01
0E
11
2C
12
11
2E
3B
06
39
0B
0A
0A
07
0F
17
3B
3C
2B
34
15
0D
3D
0F
29
2F
2D
0D
31
0B
0E
3F
0C
2A
2A
0B
04
03
10
10
34
00
0E
3C
05
2F
0C
2D
08
10
39
0F
0A
10
30
3F
37
12
01
3C
2B
30
03
38
13
39
3D
14
38
02
3A
2D
29
0F
00
2D
3C
0C
04
19
3A
31
07
02
07
15
32
10
03
2B
2C
01
33
37
0E
2A
15
09
30
3A
06
3F
04
0A
3D
2A
35
15
3E
15
15
3C
3F
3F
29
04
03
37
10
3F
31
37
09
36
37
0D
00
32
2C
16
3B
29
06
15
31
2B
10
29
0A
3E
31
33
02
2D
09
00
2B
32
11
12
10
0C
3C
11
36
07
3B
2F
01
0A
3D
07
35
36
3F
00
30
33
18
3E
04
0E
3C
00
0E
09
04
00
31
07
02
12
06
2B
0E
15
0C
00
3C
0D
12
32
35
3F
3B
37
28
35
05
12
11
32
09
35
12
3A
36
3B
30
03
0D
16
15
28
2E
15
33
13
34
13
03
0B
3C
34
3D
09
39
0B
38
11
32
2F
06
0D
03
0F
2F
0E
16
0B
01
06
11
07
2D
2C
0A
06
12
0F
02
16
2D
3F
16
3A
31
12
0B
32
18
3C
39
0C
3F
10
33
0F
34
0C
33
11
2F
11
31
3A
15
36
31
0D
28
12
3D
0C
12
06
05
3D
14
36
2A
3D
39
11
37
30
2B
32
0A
31
36
2B
3C
15
3E
28
2B
3E
36
07
16
0B
12
3F
3F
37
09
10
37
2E
15
3B
3A
11
11
39
36
00
0D
38
3F
10
10
07
30
2A
2B
27
05
36
05
01
34
28
39
28
2D
36
29
3D
05
3F
3E
3D
29
35
38
32
0B
31
32
0B
14
2D
02
17
3F
35
0D
14
2A
04
35
15
0F
35
29
29
3B
33
3C
34
0E
3D
3D
16
0A
3E
30
12
17
35
36
03
05
29
00
16
28
36
32
3B
32
05
33
17
0A
07
34
3E
0D
0D
3E
2F
14
0A
12
09
06
3A
0D
37
01
31
07
3C
2C
0D
31
12
0C
34
0C
30
2C
3E
06
29
10
09
06
02
15
37
0A
13
3E
03
03
0E
02
03
04
37
2B
03
09
2F
34
06
11
11
05
06
16
10
01
0B
2C
12
30
05
0A
3C
04
3B
04
39
06
2C
11
3C
3B
0E
0C
3A
31
06
39
2C
08
0F
07
28
2E
01
05
01
0A
26
34
27
16
2E
34
01
14
12
0C
29
0E
16
0F
36
3B
27
17
02
04
29
03
32
38
04
36
14
27
07
2B
0B
14
13
30
0A
37
10
35
07
31
36
16
09
01
28
13
2B
37
12
06
16
2B
03
3A
3D
3B
04
12
3B
16
01
02
36
39
3D
06
26
14
2C
03
16
28
3A
01
3D
0E
14
04
3F
2E
05
14
09
38
10
2E
35
05
03
3B
36
35
09
18
0F
10
3C
12
3F
15
38
2E
0C
34
38
15
03
2A
3E
33
13
3E
11
28
15
33
06
31
00
2A
00
3A
3C
04
2B
12
3B
2D
28
01
09
2C
2C
10
36
00
3E
28
09
0C
37
3E
29
3A
05
0A
36
09
0D
0D
0A
08
2E
0B
03
08
0C
2C
0D
16
07
28
37
16
32
0C
3D
32
0C
00
29
12
38
08
2F
3A
03
0E
31
16
13
29
2A
3E
3B
01
2F
0B
05
13
30
32
2B
2C
27
29
36
2B
03
3D
38
09
04
03
2E
10
06
03
0F
14
01
39
29
04
0E
3D
13
2E
2B
0B
0D
2D
11
34
07
2B
07
3A
12
37
32
3C
2C
0E
03
3C
38
11
04
11
16
2D
38
02
10
12
2D
2C
0A
2E
09
0D
35
38
33
04
32
04
2C
31
04
00
09
17
3B
3A
29
0D
0D
01
2E
38
0D
3A
27
28
08
2B
3F
3A
31
35
12
34
0F
09
06
2D
11
35
37
3C
07
0D
10
10
08
13
3B
3C
0C
00
01
38
38
2E
08
33
0A
3A
3B
3F
3C
17
29
2F
03
31
00
2B
2E
38
29
06
02
2D
03
2A
00
28
36
17
08
17
09
3E
28
2F
08
0E
0B
02
15
0F
09
2F
06
3A
3E
3B
0A
14
11
0C
3B
03
05
0A
09
0E
29
2D
09
34
2C
2B
32
15
05
39
3F
01
0C
0F
3F
19
13
36
35
30
12
35
13
06
14
12
03
3B
06
02
2F
38
05
2D
0F
2F
3F
30
0B
3C
39
2C
08
09
39
0C
32
06
29
33
05
0B
32
0C
2F
15
3A
0C
35
00
10
01
33
37
13
00
02
05
01
03
38
0D
3C
13
05
0E
39
2D
2F
0A
3C
36
12
31
27
2C
38
27
07
16
36
04
34
33
35
37
2A
00
18
05
07
15
07
12
2F
2A
11
35
00
38
0E
12
05
13
2A
29
29
3E
03
2F
32
16
35
2B
38
3A
34
16
16
31
38
0A
34
0D
3A
14
39
01
0C
35
2D
0E
2E
3D
07
2D
3F
2C
09
10
12
0F
27
3C
39
3C
10
39
2E
10
32
03
17
08
3F
00
29
0E
27
01
06
11
08
37
3F
06
37
31
33
10
15
15
0A
34
26
28
3F
0F
39
06
0C
37
30
00
34
02
10
16
39
0B
01
29
03
33
37
0A
0A
13
0F
05
0E
39
3A
30
05
27
34
2A
33
0C
34
28
08
3B
30
13
26
0F
28
3F
06
2A
29
0A
2D
0D
3F
11
16
2B
3F
0D
37
3A
2F
35
31
37
37
2C
0D
34
16
0B
0A
3B
0A
13
3D
2D
3E
37
0F
08
31
3E
29
29
35
0A
3F
3E
2F
06
2C
03
39
2A
30
02
2C
31
0E
0E
0D
3B
36
17
12
2A
0C
15
37
09
0C
38
16
0D
26
3E
3D
14
37
0F
2A
15
15
3F
2B
11
12
30
2D
36
09
13
2B
10
06
05
2A
07
32
39
04
2A
0C
39
35
3E
35
0A
01
30
03
05
3B
17
11
04
06
28
2B
09
2E
03
2D
0F
38
12
18
0D
34
30
01
06
30
36
2B
11
37
3C
09
15
01
30
30
3D
15
04
29
13
01
2A
2E
01
39
0F
3B
09
2E
09
0C
3C
04
0D
0E
2C
30
39
0E
0E
34
37
37
07
38
2F
29
38
3A
00
06
15
28
3E
17
3B
28
3B
37
3C
09
08
0B
2E
02
2F
08
32
31
07
30
06
04
35
16
01
2C
32
0B
0A
33
27
2A
0B
0A
31
14
2E
3F
28
08
14
35
09
09
3E
09
08
37
15
38
0F
0C
36
31
3C
30
14
03
04
3B
2F
28
0B
08
0E
16
39
30
00
35
17
04
37
26
38
2D
0F
30
36
0C
25
2E
0B
15
27
04
07
0E
28
0C
39
0C
00
34
32
39
05
0A
11
0B
10
39
03
30
3D
39
3F
16
3F
11
36
0A
38
33
2F
10
2E
11
37
27
3E
2A
3B
0F
13
2E
18
37
0F
0F
37
2F
3B
28
2D
27
0D
2C
01
3D
0F
35
34
2B
09
17
0C
07
15
09
35
31
31
2F
0B
15
29
3F
09
27
30
05
3F
29
34
14
33
13
37
38
12
30
0D
29
2E
2F
16
05
05
30
07
33
36
3B
32
2B
37
02
2D
07
3D
34
3B
30
03
0A
2C
0D
38
0F
2E
0B
04
3A
3E
0F
34
3B
0E
35
0A
05
39
10
30
3C
3E
0A
02
15
2C
2F
15
31
29
11
02
39
3D
35
32
04
12
34
2C
2B
3F
3A
3F
2F
38
0E
39
38
3D
0C
05
08
36
29
01
04
3B
12
2B
35
07
2E
0E
10
15
2D
16
3A
3A
3E
2C
13
2E
00
3F
2C
29
38
2E
0D
04
12
08
08
17
15
11
2C
32
2C
0C
3F
3D
04
3B
28
17
2D
28
11
28
31
08
30
08
32
0F
31
30
33
09
03
09
37
38
3A
26
3D
38
3D
33
2F
05
08
03
11
2C
3B
00
03
17
39
08
3E
3D
00
17
07
2C
2F
14
3A
02
32
3A
29
3E
3D
2A
3B
3F
02
3B
0A
38
3C
00
06
0A
3F
33
0C
0B
0C
33
08
2D
37
0C
28
04
14
06
38
0C
38
14
2C
26
07
34
05
30
3F
0F
31
04
16
13
0E
13
38
26
2D
32
2E
14
06
16
13
0B
0A
35
37
10
2C
14
15
3F
15
12
27
2C
3A
2F
33
0C
0D
3B
3E
2E
02
02
08
12
33
15
00
16
30
17
0E
0D
01
3F
07
2D
2B
34
32
05
31
2A
28
02
32
06
3F
36
16
38
08
0A
28
10
33
01
04
3C
0F
39
01
30
01
07
2A
05
00
0F
08
28
38
16
13
12
04
3C
36
32
35
2E
0B
0B
2B
35
0C
06
02
13
27
2E
35
30
0F
15
2A
10
29
05
10
2E
26
08
2A
2F
11
2D
3E
0A
3E
2D
2A
12
03
03
14
2E
09
0B
3A
11
0C
32
3A
33
16
02
2B
36
04
07
05
01
36
10
09
3C
2F
14
16
06
0A
32
3C
36
35
0C
33
30
0C
08
3F
16
32
02
0A
2B
06
16
13
10
31
02
00
03
2C
14
0E
29
27
33
3E
01
10
33
2B
0B
0B
10
0E
06
11
03
36
3E
0B
36
0E
0F
14
3F
05
3E
13
02
3D
02
2F
06
2E
0C
08
30
3B
09
10
0F
00
3B
39
2A
02
38
3A
01
0B
2A
28
3D
08
08
2E
36
0F
3C
3C
35
0B
27
2C
00
0B
2F
2F
07
09
26
2E
08
3E
0D
33
14
08
0F
2B
2D
0C
29
0C
2B
33
3A
0A
0F
39
17
15
3B
10
15
08
06
00
05
12
00
38
06
32
2F
12
16
18
2A
0C
10
34
37
03
3D
2B
2E
10
0C
0D
12
03
13
36
36
38
0B
08
18
33
33
0A
2D
3F
3D
07
33
35
10
16
11
12
37
15
3D
28
09
27
32
37
2A
3D
00
37
3C
35
0D
35
0D
3B
09
04
09
29
30
10
0D
2D
05
17
3B
3A
2A
2A
13
0D
34
2D
0E
3B
06
2F
08
37
38
38
3F
3D
32
2B
2B
04
34
33
08
11
06
17
0F
38
3D
00
0D
36
14
09
04
0A
3C
06
36
0C
0B
3F
04
30
13
36
00
01
35
14
33
14
33
3E
3C
13
13
2B
12
31
17
13
04
3F
10
11
01
09
18
03
0D
11
2D
36
13
3A
39
15
08
0E
3C
33
03
33
2E
0A
2E
08
3B
11
08
30
37
08
17
04
0E
31
33
29
31
32
38
39
2E
37
39
28
2C
08
0F
0A
3F
2E
0C
28
3D
3B
05
32
3B
2F
04
09
0E
35
04
2A
09
33
01
0A
15
11
17
3F
38
0D
0A
00
3F
11
06
0C
31
0A
28
12
36
36
28
2A
36
0B
2B
07
07
3D
0E
14
0A
03
05
07
3B
3A
05
26
36
01
3A
3E
0D
3A
16
35
2E
33
2E
16
04
06
29
28
3E
28
0E
3C
31
0A
0F
37
39
34
06
06
16
06
05
2F
28
39
0F
03
07
28
37
3B
07
2B
04
3F
3C
37
04
3B
30
17
00
36
13
15
0E
16
2E
13
06
16
3D
13
35
0E
00
3C
0A
2D
07
35
2C
35
0E
36
3A
2C
02
14
07
3F
08
39
12
2F
0C
18
17
0A
13
35
11
3C
10
12
01
37
2B
32
0B
38
0A
32
3B
38
30
0D
3A
2F
0E
29
3F
02
2C
16
0D
16
0A
2E
35
36
3D
03
2F
2F
32
0B
34
12
39
3B
2A
10
05
0D
12
0D
00
06
29
10
34
0B
05
3E
10
30
0E
34
3F
39
2D
13
30
16
2F
0A
05
30
3B
3D
09
00
32
31
16
0E
15
29
07
0E
37
2E
1A
00
01
3E
0D
14
2C
05
31
3B
29
01
3D
2E
11
31
0B
13
3A
09
13
28
2A
01
06
14
2D
31
3B
12
0C
2A
0E
13
2F
0D
12
03
0A
03
3F
3B
35
13
0B
2D
07
36
10
0D
28
0E
32
11
0D
0A
02
39
09
38
2B
3B
15
10
39
11
2C
36
2E
3B
0B
38
30
11
04
03
35
0A
11
09
34
36
3D
01
12
2F
0D
13
3B
35
34
04
35
3B
06
3A
16
2C
39
0B
2A
3C
2C
16
10
0A
37
32
2B
29
38
37
03
08
2E
01
28
2A
29
3B
2C
3B
0E
0B
30
01
34
39
09
2A
02
32
02
0C
0B
30
2B
2B
09
38
06
00
12
3C
2B
08
10
07
12
28
0A
36
12
04
33
2C
3C
11
34
2B
38
2F
02
36
0F
3A
33
0F
3C
0A
2A
17
2E
32
3F
39
2B
35
0E
3E
2D
36
15
08
06
05
38
11
31
0A
3E
37
17
39
37
26
28
3F
2D
11
0A
0D
3D
0E
11
2A
12
37
29
2C
14
3C
08
09
02
3A
12
2C
32
11
0B
0D
16
10
16
15
18
0E
2D
0E
3A
03
28
35
0D
03
3F
05
3D
15
00
05
07
34
0E
0E
3C
2F
12
10
10
3E
01
12
02
0C
2B
0A
0C
37
02
04
01
36
04
0D
16
36
37
3B
29
29
00
38
2B
28
16
04
28
0C
09
33
17
30
36
16
13
32
3F
3C
29
00
35
11
08
0C
13
3E
3F
31
0E
33
3E
0A
05
0C
14
2D
06
10
31
0E
3B
0B
14
0C
2A
08
15
15
0A
39
2B
0F
3A
05
05
30
09
06
04
03
02
34
03
0E
03
39
3B
3F
31
38
2B
36
12
31
2D
15
03
14
3E
30
16
3B
3A
0E
31
31
0D
32
02
28
16
00
36
0C
0B
18
0E
03
15
2F
32
0E
0F
2A
39
05
01
16
3A
0C
0F
0E
29
27
0E
05
2E
04
10
0E
36
00
32
36
39
0A
37
0D
2D
2B
0D
08
29
36
3C
17
3C
38
09
3D
33
10
07
0D
36
3D
10
3F
35
3A
15
26
08
3F
09
2E
2A
3F
32
2D
05
10
15
35
2B
36
2F
30
3B
34
0E
0E
01
2E
03
3B
11
03
02
0D
11
39
00
3E
3D
29
1A
0A
06
0F
12
2C
14
05
3D
2D
06
0D
3C
30
27
2F
0D
2B
32
30
15
29
01
2C
30
02
29
38
02
2E
37
13
35
14
37
3A
00
2C
30
04
11
2B
3B
34
0A
2F
35
17
03
2F
08
02
31
29
3C
03
2F
34
05
30
0E
0D
30
3A
2E
16
09
3B
09
09
12
3C
0A
2E
06
03
08
10
16
3C
02
39
0E
0A
00
3B
13
0F
30
02
01
39
3E
06
0D
29
33
03
12
29
3A
2F
3D
33
3C
02
05
33
0A
3E
36
00
0C
32
37
06
04
29
12
0A
03
00
39
0F
00
3C
12
29
3A
32
32
01
0E
0F
0C
00
3C
3A
18
37
08
02
0D
3E
0E
29
07
06
29
0C
2C
0F
14
05
35
2B
32
10
0F
3A
39
06
11
05
3F
03
3D
2A
2C
0A
28
06
0A
09
3C
0A
30
2B
0D
0E
30
17
03
0D
12
08
29
34
0F
32
2F
0B
0E
35
3F
0A
30
3E
0C
29
35
03
15
05
39
0B
0B
2A
39
11
14
04
0C
03
08
13
12
37
0C
10
30
39
31
38
28
30
06
12
04
3A
3B
05
3A
2A
29
3B
32
0B
2C
0B
10
32
12
38
32
38
2F
14
02
30
27
11
36
07
2B
2A
12
34
3B
39
03
29
0F
30
14
0D
15
31
32
3D
2B
3C
34
03
39
04
0D
31
00
3B
28
09
05
2B
37
29
31
36
07
36
0B
07
2F
17
0D
32
2C
10
13
3A
2D
31
36
2C
30
11
06
2B
0C
0B
35
26
38
05
28
00
35
12
15
38
27
05
10
32
00
12
02
32
27
04
07
2B
02
06
03
3C
05
15
3A
31
2F
0E
28
0F
0E
29
38
05
0F
15
16
25
09
13
39
05
36
14
3A
0C
13
34
13
0D
0E
39
2F
02
12
34
39
09
30
30
0A
0A
02
0B
05
2D
3F
00
28
2F
17
12
3B
01
3B
06
00
16
2B
15
3A
28
30
07
07
3A
16
02
2E
31
11
10
16
3C
3D
30
07
29
33
05
33
2E
28
31
2F
0C
37
35
36
04
34
28
08
01
25
01
2B
2C
3F
01
11
06
3A
09
0A
0F
09
0D
04
05
08
3F
00
2D
11
32
30
2F
31
0B
3E
07
0C
2F
0C
05
29
09
16
15
3F
3F
3E
03
2A
3C
37
04
31
28
3A
09
3B
09
34
05
3D
00
35
02
27
2B
00
3A
04
05
35
31
07
2B
35
12
30
00
3C
33
3C
0E
3C
06
01
34
06
3B
16
3E
0D
08
12
35
13
13
32
3B
3C
03
06
2B
14
3B
31
2D
33
0D
31
33
37
35
03
32
29
08
3E
3F
3D
36
01
01
0A
06
06
32
3A
04
30
31
02
0C
0A
27
08
31
07
2F
3F
07
05
37
2C
05
3D
3E
0B
36
08
3F
37
07
29
34
3A
3B
0E
14
37
3E
2D
0F
14
30
28
27
00
34
31
29
3F
34
16
03
30
0D
3E
3F
0E
30
0A
02
09
0F
35
0B
3B
10
02
0F
28
03
00
2B
0F
3F
14
09
10
04
09
31
35
2F
35
09
3A
39
27
33
3F
2A
30
30
33
2A
3B
31
3B
17
25
10
29
37
0B
30
3F
39
3A
3D
34
18
07
2A
03
3E
36
31
30
12
38
35
38
28
29
0C
12
02
2E
15
2C
0C
13
1B
3B
38
3C
00
0B
29
0D
0B
0A
14
39
2D
07
12
3E
3E
2F
3C
33
35
2E
00
07
3E
0F
36
3A
11
0E
3F
16
28
09
02
3A
08
2A
03
2C
03
03
38
31
14
2F
3D
0B
12
2E
2C
36
33
12
3E
0A
03
05
34
34
2D
02
3A
35
2A
32
35
3A
35
32
09
0C
04
06
3B
33
07
30
00
08
38
08
38
27
03
02
31
0E
10
15
02
2A
0B
08
29
13
09
33
05
30
02
2D
0F
3E
2E
3D
2F
0F
3D
2B
2C
0C
28
3D
01
2B
12
3B
32
0B
2B
32
3E
36
0F
35
2C
3A
0E
0E
15
10
39
3A
2B
12
33
2F
14
13
3A
2A
11
39
05
36
11
2C
15
11
10
13
0D
3E
0C
28
2A
33
33
3D
3C
12
2D
01
2A
01
0F
27
08
17
02
2E
0B
0F
38
16
35
30
0F
29
29
03
11
37
05
2F
0C
32
39
0D
16
37
3D
35
0A
34
11
29
3D
2A
0C
09
0A
08
0E
31
2E
3F
32
17
12
0E
28
3D
32
30
28
28
18
10
37
38
0C
34
33
0D
31
29
08
3F
29
10
07
12
28
37
02
2F
0F
14
3B
09
09
0F
11
0F
34
3E
3D
32
13
38
0A
2D
37
35
2E
0D
11
07
16
14
02
2D
31
0B
2E
2C
38
36
36
28
3F
14
04
0F
3B
06
01
34
03
15
10
11
17
14
0B
0F
12
10
0E
36
27
36
3F
37
12
33
12
17
08
36
33
33
3F
2E
0B
3A
32
18
00
0C
2F
3B
2C
06
2B
0E
30
3B
2F
27
07
30
05
15
01
32
02
0A
31
29
39
3C
3C
27
07
14
2A
09
02
03
05
14
02
3B
0F
33
03
33
12
04
08
3A
28
0A
14
0F
17
35
2C
0F
0B
17
11
2B
04
02
0E
0A
3A
13
2E
2B
3D
07
16
15
37
34
33
2F
09
35
2E
0A
33
0B
33
15
00
2D
02
37
12
07
11
12
39
34
31
32
05
00
01
3A
04
30
09
28
13
04
11
3C
00
18
32
0D
0C
0B
2F
0D
2D
31
07
13
11
3D
0A
3E
08
18
10
10
31
3C
00
18
29
2A
08
3D
31
2F
08
2D
18
3E
33
2A
3C
0D
0A
3D
01
29
0D
31
0B
3B
3C
0B
0D
35
13
3C
12
2C
3A
36
01
31
35
3A
12
3C
3A
3B
2D
17
14
03
3A
14
36
0A
31
11
0F
26
25
09
30
2C
39
29
2D
2E
02
02
33
2B
39
06
33
3B
37
09
2F
2A
15
17
05
0E
0A
14
3D
15
07
15
33
00
11
3E
3F
29
30
0C
0A
2E
3C
3F
07
07
02
3A
08
0B
16
05
29
2B
3D
2E
38
11
14
3D
31
35
10
3A
33
2A
0C
14
36
3E
01
29
13
0D
32
32
13
0A
01
3A
37
0E
03
3E
30
0E
09
13
15
12
35
27
29
3B
17
30
08
2C
0B
14
34
14
0F
16
2F
0E
31
34
01
33
39
06
2D
3D
37
11
27
0A
07
3F
2D
3F
10
34
35
35
00
3A
2D
13
0D
2F
31
0C
30
01
2B
08
39
04
31
0E
2D
11
16
01
37
15
3F
29
1C
37
3A
01
11
0D
3C
36
29
28
12
3D
13
04
3D
15
3C
2D
09
3C
2F
08
3E
3C
2A
13
39
0D
35
2C
29
09
0F
11
09
03
3B
37
0F
05
2D
2E
08
28
2F
01
0C
2C
31
39
15
06
06
3B
0F
0F
2E
04
11
0A
10
37
03
07
0C
13
08
15
2B
3E
31
0B
0C
2D
31
0B
17
0C
10
2E
14
0C
07
28
3C
38
33
34
37
39
3D
37
2E
02
10
02
2C
00
28
1C
0B
2A
08
05
0B
27
06
2E
3A
02
38
05
0A
0C
17
36
00
2F
13
39
38
3B
39
11
3B
0E
08
36
2F
01
2C
10
36
32
0E
38
03
03
3F
0D
29
11
14
05
0D
28
0D
0F
2A
0A
35
33
10
0C
2A
3E
3E
0C
38
03
34
30
3C
1A
13
2E
3A
01
10
2A
10
30
3A
11
28
0D
13
08
3D
13
12
0A
16
2F
3B
2B
0F
2B
3A
08
14
28
37
36
38
2D
39
13
07
37
3E
3D
01
01
0D
34
0B
00
07
32
06
33
06
28
28
2E
2E
01
08
01
01
29
13
11
33
18
2B
3F
3F
36
04
0A
0C
2B
32
16
38
07
13
15
29
2E
2A
2E
10
29
36
2A
04
3C
16
38
34
0B
0F
36
38
15
39
34
10
16
2E
38
39
06
32
3C
36
31
06
0D
28
2F
06
0E
11
05
27
15
05
39
29
3E
09
3D
29
36
30
31
34
31
2A
37
03
30
3B
05
10
12
33
37
0B
0F
3F
13
0C
08
31
11
35
34
05
16
05
2C
00
16
09
10
33
05
07
35
10
04
12
2C
02
3C
36
31
06
10
12
04
0C
09
25
2B
07
32
31
04
37
3F
16
3C
2A
0F
0B
3D
15
3C
3A
2B
38
15
39
37
2C
2F
3D
3C
39
29
2E
10
05
0E
35
03
05
13
09
02
39
29
2A
14
2A
2B
0C
37
12
34
2E
11
3A
0E
3B
0E
14
03
2C
05
0F
29
2E
01
11
29
10
0A
0B
26
38
06
2C
06
1A
16
08
35
08
3B
07
35
01
13
28
35
3E
07
08
2C
08
0B
35
0C
27
3A
3F
03
2E
3A
09
25
07
36
0A
3C
06
30
04
15
0A
09
3C
2B
03
01
04
31
13
36
0A
38
2B
2C
10
1B
39
39
02
04
01
05
04
3B
2B
3B
3E
32
38
07
08
37
2E
36
17
25
09
2F
13
16
13
36
0C
33
32
08
26
28
2F
01
39
0D
38
0E
13
35
3C
14
12
33
37
13
2C
13
08
00
31
3E
2B
29
0A
2A
13
06
3B
3D
15
11
39
0E
12
17
02
13
06
3D
2D
06
2C
12
2D
0E
04
2C
3A
11
37
34
36
38
05
0B
0A
3F
0A
00
0D
36
06
31
01
2F
17
13
0C
27
32
16
3F
04
2A
17
30
16
03
02
28
0E
0D
05
10
2A
05
05
05
02
31
18
26
3A
02
3A
2C
3E
0D
2E
0B
3C
39
32
04
08
02
3A
37
14
0E
01
33
15
3B
35
0B
05
33
3B
02
31
27
02
05
15
29
2D
0C
3C
16
2C
04
15
17
2C
15
03
2F
32
27
28
35
39
12
28
12
36
38
2C
29
0F
10
3F
38
15
14
37
0E
10
05
37
36
13
34
03
34
02
17
2C
38
0F
3B
36
2A
33
10
06
07
37
3C
2A
0A
3B
13
08
10
15
3B
0C
30
39
13
35
07
36
07
3D
31
35
12
02
29
18
05
30
03
35
09
02
37
15
17
00
29
0D
3B
39
04
32
3A
11
08
2B
28
0C
01
27
01
14
11
14
36
0D
38
2B
28
10
38
3D
2E
35
30
07
0C
2B
3E
33
0B
2E
33
31
15
11
39
05
3A
2A
0C
2B
11
0A
13
3A
07
00
12
0B
2E
09
12
15
30
3E
07
16
36
2A
10
28
28
3C
09
39
32
32
2E
2F
33
38
02
2C
3F
09
37
2E
28
3A
2F
3D
37
33
33
29
04
07
3E
13
3B
3F
38
29
07
14
08
0C
3C
04
35
0D
0E
3B
29
15
33
0D
3A
35
10
10
3E
13
10
38
07
37
04
2C
33
00
35
3B
04
31
33
29
05
28
2C
09
14
2A
2E
03
03
34
3A
29
11
02
13
29
09
13
06
0F
01
07
2A
0C
3D
30
28
04
2B
08
14
0E
0A
11
0D
0A
28
36
33
2F
04
38
0C
34
34
14
3F
01
0E
16
0D
06
27
0B
39
10
27
15
39
34
17
0A
13
28
35
14
36
00
3B
37
31
3E
07
3D
17
13
3F
32
2E
10
32
05
2C
29
34
2F
34
2F
00
28
3E
0A
04
08
37
15
10
2C
17
3B
33
39
06
2A
31
14
3C
08
17
3E
3F
3C
04
3B
31
2E
3A
09
3D
17
0B
0E
3B
28
2B
3B
2B
16
29
2B
16
32
0E
2A
3F
2F
11
39
2B
31
05
10
0B
08
06
39
05
01
31
01
18
02
37
06
12
3F
33
01
3C
15
37
0A
07
09
02
35
26
04
27
2F
06
32
0E
17
0C
2C
38
0A
09
2B
09
07
29
28
00
33
3D
31
0F
2F
09
16
04
09
0C
38
3F
2E
2F
2A
16
11
28
38
39
04
3A
36
11
13
02
28
17
16
0F
31
3E
2E
35
05
0C
38
10
08
0C
38
0E
33
33
2F
10
30
14
37
2E
08
0B
14
16
3A
0C
0C
39
2A
29
2A
33
2D
32
31
2E
16
0A
3C
11
03
14
0C
0D
2A
00
14
33
06
2D
11
11
0F
39
00
06
13
0E
36
38
0A
32
3D
38
02
0D
32
3D
31
08
06
2B
03
33
05
34
2E
10
34
02
3C
05
07
36
12
2C
04
08
36
37
11
0E
06
3C
31
0B
0B
36
2B
2C
12
01
12
37
0B
3B
2D
27
39
36
0E
09
0E
05
30
16
3E
33
38
15
2F
37
03
37
0B
38
0E
09
07
38
3C
3D
07
33
06
3D
00
3C
14
39
2F
37
36
27
28
15
2D
2E
3C
28
28
39
3A
04
0B
12
11
35
39
04
34
09
34
37
04
09
0B
0B
3F
2E
0C
28
12
27
07
3B
07
0D
3E
0D
3D
2A
3E
3A
26
3E
31
05
31
16
10
32
3D
15
2F
0D
0B
2B
17
2E
2D
3A
0A
12
36
28
3D
10
30
3D
0B
3C
10
3B
35
35
07
2F
3C
3A
00
0A
3C
0D
3A
3C
36
01
31
32
02
3A
2D
3E
2F
12
39
14
31
17
39
00
00
33
35
2A
39
31
0F
0F
2C
0B
31
04
3E
0F
0E
12
10
08
0E
2B
0F
3D
32
15
06
2D
3A
0E
04
10
28
35
13
14
33
13
3B
09
32
0D
09
3A
14
0B
14
0D
03
32
2E
33
0B
09
28
05
2D
2B
3E
03
3B
0D
07
3D
02
2E
07
2B
3A
12
0B
2F
37
30
06
0B
27
07
28
16
2F
0A
04
10
00
2F
3E
03
35
28
29
03
2D
10
0A
10
09
37
35
2F
35
10
31
3C
29
38
35
12
08
2C
00
0B
34
0B
05
15
13
30
30
03
04
10
2B
38
3C
05
29
29
2C
36
02
2B
0C
0C
0E
3C
10
02
17
3A
14
39
39
08
0B
2F
2A
38
35
08
3F
04
38
09
10
2A
10
33
28
28
07
08
0F
2A
2C
03
14
05
0C
16
01
08
2B
39
38
07
39
13
17
18
02
16
3D
28
2C
3D
0B
15
30
0E
35
16
2D
0A
07
3E
10
0F
07
31
03
0C
10
2D
15
3E
3E
3A
31
33
33
29
2F
2B
18
0E
2E
3A
39
12
07
3F
3A
3C
29
2D
2B
02
15
07
05
2F
35
30
13
10
03
00
0B
06
02
12
31
3F
0A
04
2A
3D
11
02
0D
2E
04
33
33
0F
05
33
35
38
3E
0C
39
2E
14
2E
0A
06
30
0D
03
0A
3F
29
0F
16
2B
12
35
0B
11
3F
32
28
34
38
37
13
2C
06
15
3C
3D
0D
33
3F
37
0C
05
3E
16
2F
00
30
01
3E
2E
37
33
14
02
00
02
0F
03
02
2B
13
17
3C
0C
35
37
14
33
09
13
34
0F
01
19
2F
30
30
31
3A
13
39
29
07
3F
31
15
31
2B
29
05
06
11
3D
27
32
2F
0E
0F
3B
3D
12
36
11
0D
28
00
32
01
3F
2C
15
34
2D
05
30
36
18
0D
0B
2F
2C
00
15
01
07
33
2C
15
2E
3F
08
3D
2C
3F
2F
01
13
0D
27
30
35
09
05
32
2F
31
10
3D
11
11
28
04
34
09
06
0C
05
04
00
28
16
35
3C
39
0C
30
3A
29
2B
3E
08
39
3E
34
13
30
3A
14
39
2D
18
3F
35
0B
0D
30
2F
0B
31
01
33
33
33
04
0A
2A
09
3E
3D
02
10
3B
05
01
13
11
15
2F
3F
34
35
3E
2F
30
00
15
2A
16
13
06
12
3D
12
02
3B
2E
30
3C
2D
05
17
2D
28
19
3E
08
06
2A
36
07
29
3E
0E
08
12
2F
15
16
03
30
35
0C
0F
34
0D
07
32
09
29
14
12
06
28
03
09
37
07
37
06
29
3F
11
3B
13
07
04
08
35
08
12
0E
02
29
03
2F
25
2D
36
2E
15
02
15
39
2D
2E
35
35
00
01
2D
10
00
03
12
3B
15
3E
10
12
3B
03
10
08
0A
2A
33
11
37
05
0C
3C
03
13
11
09
3A
08
07
35
3D
3F
27
3A
3A
1E
39
2D
13
35
0A
3F
38
2A
34
07
29
2E
00
3B
2A
01
12
19
05
39
16
08
35
1C
34
3C
0F
2E
12
13
07
3C
02
12
2D
3B
3D
0E
3A
31
31
06
0B
2D
0E
3D
2C
13
0E
32
2B
00
08
2D
00
0D
0A
27
35
08
15
2A
3F
0A
12
33
35
30
1B
00
30
31
33
30
33
34
05
32
26
04
02
0F
28
09
2B
06
03
08
0D
13
03
11
11
3C
04
39
04
29
0A
00
36
0E
39
33
30
3E
1D
10
14
30
2B
34
03
3C
3C
15
06
31
0F
06
12
30
08
05
34
2B
2C
2A
00
00
14
2C
2A
34
13
04
0A
11
29
2F
05
2C
2B
08
06
0E
0E
3F
0A
2A
32
10
3A
05
02
29
27
16
3C
04
08
39
02
36
07
14
29
09
3A
2B
0A
07
28
2F
0B
37
2F
2A
05
2F
06
17
0F
16
0D
38
0A
14
0F
2F
09
13
2B
06
14
04
04
07
2A
33
12
28
2D
32
2A
14
11
2D
3F
39
0F
39
11
3F
0D
04
27
0E
3E
36
0D
3B
3A
04
0E
31
2B
15
31
02
02
28
09
07
37
27
0C
3C
00
32
0D
0E
32
3A
3B
13
13
03
29
04
05
0E
35
04
10
2A
34
17
03
04
3D
33
3F
39
09
0E
2B
2B
08
29
33
38
2E
28
00
32
14
17
02
02
29
3F
11
14
16
0E
09
31
3E
0F
0F
0E
13
07
0F
0C
12
05
37
07
39
2D
31
32
3E
2D
3F
2B
3C
17
01
11
3E
13
09
06
06
2A
3B
3F
3B
06
39
08
0D
16
27
39
2E
0E
12
07
0C
09
17
08
2A
32
2A
08
13
08
2D
3A
03
32
3C
2F
3B
0A
3C
2E
38
0D
12
3C
0E
27
36
03
14
06
01
0C
3F
34
0A
0B
01
3C
09
35
3B
12
2D
2C
39
2F
03
2A
32
0E
03
0E
3D
2C
03
09
38
33
15
15
0F
28
39
15
34
12
09
13
34
18
39
3B
3E
29
0F
0D
0F
0B
0D
17
30
05
14
13
06
0C
3C
00
10
2C
0F
09
0F
33
37
2D
0D
16
3F
06
37
0B
38
12
38
39
28
14
04
2E
01
03
35
22
3E
3D
0B
01
08
31
3D
31
36
0D
2B
33
2A
0D
13
16
3A
23
3E
1A
00
33
2E
2E
12
05
17
11
3E
26
3B
27
03
02
17
3E
13
18
15
04
28
2A
3B
27
35
17
3A
31
34
3D
14
09
09
02
0E
0C
0D
08
3B
26
04
0F
39
28
2C
0D
2B
35
10
03
39
03
0E
3D
02
13
2A
06
11
30
13
0E
0C
2A
10
05
0A
0C
30
2F
08
11
11
29
16
2C
37
2E
2B
0D
2B
2F
09
14
11
32
0E
0A
18
30
3E
36
32
0B
0C
2B
3A
02
08
01
3D
3A
00
0D
00
0C
0D
36
04
10
3D
0D
34
14
34
3A
39
0E
05
2A
0E
08
3E
3C
0F
06
11
0D
0E
3F
3B
32
2A
17
36
3A
10
15
2E
38
10
2E
00
02
0D
3E
07
02
01
13
2B
09
39
36
3F
14
30
10
16
16
08
2B
04
29
2D
16
0B
3B
14
32
0D
3E
2D
01
2A
14
2C
17
2E
0B
3E
3C
0C
14
04
0F
32
3D
2F
12
39
11
02
36
35
05
2E
2B
16
00
05
10
03
2D
03
2A
09
15
0A
13
2E
39
2D
32
2A
36
32
2A
2F
12
2A
02
10
13
11
3B
2B
3C
01
37
02
0C
0F
12
29
2A
36
2E
36
02
04
01
02
08
38
07
2C
08
05
07
31
07
02
0E
33
15
09
14
34
2F
15
09
11
3A
13
2F
3D
29
3F
01
09
28
2D
0C
2A
31
30
0C
10
35
0E
36
0C
0F
0B
2B
0D
3F
37
15
2D
0B
2A
09
04
3B
00
35
29
3A
06
0D
2D
06
0C
31
12
2C
3B
3E
3E
10
3E
33
37
05
31
01
16
34
0F
13
0D
2E
0A
00
01
31
3A
08
0E
2A
2E
12
0D
29
13
00
07
0B
08
12
10
2D
17
12
0B
35
08
2D
13
08
05
29
05
31
2C
14
3A
2D
17
0D
3D
0D
08
34
3E
01
2E
2A
03
3E
11
14
0B
03
08
07
09
2E
31
0B
12
31
3C
34
05
33
3C
0E
3F
0F
09
0D
28
0E
38
3B
15
0E
13
13
2A
39
0F
0A
2A
08
32
04
37
3E
3C
0F
07
31
33
33
12
0B
04
36
07
3A
0F
3D
10
05
31
0C
04
09
01
01
0C
39
16
13
34
3B
17
2B
0E
04
3D
04
07
12
01
01
05
38
09
32
3E
33
28
32
03
08
04
06
34
0B
12
0F
08
0B
37
2C
2C
37
02
2D
35
30
2F
30
36
11
2C
33
32
3B
3A
3F
0E
2A
06
10
03
30
33
29
26
2C
08
08
0F
2C
39
32
38
37
2B
31
11
38
32
3B
02
2C
07
12
12
2F
12
2A
09
33
3B
0F
14
3A
16
13
03
04
15
13
34
31
00
35
09
0A
11
27
12
3B
14
0C
37
3A
02
3F
3C
3B
38
0F
32
12
18
2D
0B
16
11
31
3D
09
07
29
38
3B
06
00
12
0F
2C
09
2F
31
14
34
09
05
3F
36
3E
16
3B
0B
10
05
05
12
09
39
2A
0F
06
29
13
01
38
18
3B
38
05
31
0C
0A
35
38
0D
38
31
0B
2E
29
2E
0A
3B
00
09
08
15
0A
11
13
32
34
01
07
11
0D
10
39
0B
10
2E
2E
2E
12
2E
03
36
39
0C
39
0E
32
3E
0C
14
0E
32
15
01
33
11
00
29
2B
08
0E
29
00
28
39
0D
10
2C
0A
2D
08
0C
02
02
0C
0E
0D
36
3F
14
0C
14
11
34
2F
00
04
0D
14
34
14
0F
2F
09
0F
09
33
38
11
0C
28
17
2C
0C
3F
2A
30
29
12
38
0F
12
2F
2C
0B
28
39
0B
09
3B
0E
06
3D
2F
13
05
32
0D
02
3C
0B
2A
2A
19
0B
0B
29
0F
2D
3D
13
0D
06
32
2B
39
32
09
07
38
15
32
00
07
10
2F
00
2A
29
13
02
04
0A
0B
0E
2F
11
0C
3D
08
3C
2C
02
2A
33
32
0E
31
07
0D
3A
3D
0A
3A
3E
13
13
12
2E
05
14
38
0D
06
27
0B
39
07
36
3A
38
12
07
2D
09
06
13
03
10
38
27
38
3A
0C
3F
0C
12
11
10
26
0C
09
2A
12
02
08
03
2B
2C
3C
3C
3A
3D
0F
3B
28
05
2C
11
15
28
13
0C
04
02
2B
0E
06
07
35
29
37
27
13
0C
3B
00
32
2D
3D
36
37
2F
34
14
13
3E
08
10
35
0E
0C
33
3D
02
3B
3F
04
13
2F
05
05
13
0D
2B
3A
07
02
36
09
0E
09
33
3B
28
05
38
3A
07
11
17
00
11
01
39
3C
04
0E
17
02
15
3B
2B
00
0E
33
13
13
02
2E
12
2A
10
3E
2F
13
0A
35
37
15
36
10
08
2A
13
36
13
14
2B
3C
2B
2D
0F
09
3B
37
39
05
3F
2A
39
01
3A
3E
12
0A
37
3B
0A
38
28
38
31
0F
3A
3F
34
0E
33
07
2E
17
3E
37
09
11
09
29
11
3B
0D
08
2F
0D
06
2F
3D
29
2B
37
11
08
3E
3E
09
3E
3E
2C
33
29
02
2E
0A
0F
09
00
35
2C
36
0C
03
27
37
13
0D
12
3A
3B
2C
08
06
05
36
06
0C
3B
11
3A
0A
0A
0C
13
28
34
00
3A
32
12
11
00
0C
35
35
2E
36
2D
10
2A
38
3E
0A
0F
3B
3C
3F
12
2D
35
13
14
08
10
39
01
12
16
31
12
29
2D
2E
07
09
00
00
2B
34
07
38
13
07
32
17
12
3B
29
34
00
2A
10
08
35
32
33
15
39
12
30
12
15
3D
3A
13
38
0E
09
0A
01
02
00
03
08
3B
3B
2F
3F
2A
00
0B
17
3D
03
05
3E
04
2E
0A
15
31
0A
04
0B
31
14
2C
3D
30
38
13
00
15
32
2A
0C
10
13
08
3A
27
30
0B
2F
0A
2F
08
01
07
3D
10
07
14
2C
3C
05
33
3F
14
37
15
06
07
33
07
2B
31
30
3D
11
12
14
06
06
31
2D
33
09
0C
3F
17
37
14
0B
11
38
2B
2B
12
3B
08
09
06
10
3C
05
15
3D
2B
16
09
2A
2F
30
07
3A
33
3E
12
0A
14
29
2C
36
34
29
09
2E
3B
38
30
2E
0F
0A
2D
10
2F
16
2A
3D
3C
05
14
33
34
05
13
2D
2D
3E
05
38
30
2C
0A
0D
32
34
3B
11
16
00
3D
0E
2B
3E
12
0C
13
3D
18
36
0B
2B
13
36
0A
15
09
36
35
01
38
30
33
3A
0F
2C
36
31
0D
04
2B
03
02
36
35
32
31
32
0A
11
02
17
03
0E
02
10
2B
3C
3F
2D
35
35
09
29
0A
0D
2F
10
10
2D
3A
0E
0A
0A
29
2A
3D
3C
04
36
3D
2C
18
34
30
06
3F
2A
3E
2F
30
0D
39
12
13
31
36
34
35
3B
0E
28
35
0E
0F
0A
08
35
35
2A
09
29
17
14
2C
07
09
31
2E
2D
34
34
02
32
39
32
38
2D
3C
04
12
3C
09
28
3A
00
02
0E
10
33
08
35
2E
30
3A
3F
08
2C
3F
10
3F
3D
0A
0F
30
04
12
34
09
38
2B
14
2D
39
0F
36
13
04
01
00
02
10
06
0F
0C
00
11
0C
3C
32
2A
29
0C
12
31
10
0B
05
3A
32
2A
37
2E
2D
35
05
3D
3A
3A
2D
31
12
37
14
2E
14
11
37
39
0C
33
2D
0B
08
11
03
30
0B
31
2B
15
35
31
3E
28
39
2A
01
04
14
37
02
3B
14
0C
16
0B
2B
13
3E
34
38
2D
33
33
3A
11
3F
12
11
08
09
05
2C
05
03
35
03
15
2F
09
31
17
3C
07
09
31
06
05
31
3B
2C
0A
31
10
18
37
05
0A
04
08
02
33
0B
06
2D
02
07
28
37
08
15
34
3D
2C
33
0D
3A
0E
32
35
2E
05
10
16
38
27
29
3C
31
03
01
08
3C
39
28
06
31
3D
